<unk>	0
<s>	0
</s>	0
.	-2.56983
,	-3.15671
▁the	-3.2653
▁and	-3.33466
▁a	-3.57988
▁to	-3.60097
▁was	-3.94457
▁"	-4.51658
▁The	-4.52194
▁They	-4.5706
|	-4.61187
▁it	-4.66322
▁He	-4.69788
▁said	-4.83034
▁day	-4.85443
▁with	-4.86419
▁Tim	-4.87161
'	-4.91096
▁She	-4.93312
▁in	-4.95182
▁her	-4.95771
▁his	-4.97098
s	-5.02885
▁big	-5.06838
▁he	-5.12164
▁they	-5.22342
▁had	-5.24611
▁you	-5.26334
f	-5.27855
>	-5.30498
▁<	-5.30499
text	-5.30501
endo	-5.30806
▁not	-5.31914
▁on	-5.36771
▁of	-5.36917
▁happy	-5.37278
▁very	-5.38257
▁that	-5.40143
▁Lily	-5.40223
▁saw	-5.40466
▁One	-5.41534
▁play	-5.42532
▁little	-5.45546
▁for	-5.51983
▁Tom	-5.52239
▁time	-5.52739
▁mom	-5.53315
."	-5.53447
▁she	-5.56161
▁there	-5.56654
▁named	-5.58231
▁were	-5.61016
▁wanted	-5.63163
!"	-5.65506
▁friends	-5.65684
▁I	-5.66198
!	-5.66698
▁so	-5.71834
▁It	-5.72948
▁but	-5.74161
▁went	-5.74569
▁Once	-5.76707
▁is	-5.78325
▁bird	-5.78568
▁all	-5.79277
▁upon	-5.81987
▁together	-5.96363
▁fun	-5.98244
t	-6.0306
▁help	-6.04002
▁be	-6.05396
▁their	-6.06661
▁dog	-6.0705
▁can	-6.10411
▁at	-6.10548
▁played	-6.11072
?"	-6.11608
▁girl	-6.12201
▁cat	-6.14003
▁are	-6.14278
▁did	-6.15298
▁But	-6.15937
▁up	-6.16065
▁him	-6.17559
▁too	-6.18474
▁them	-6.18582
▁Sue	-6.20111
▁could	-6.20167
▁tree	-6.20285
▁sad	-6.20588
▁ball	-6.22082
▁boy	-6.2217
▁have	-6.22634
▁Max	-6.25192
▁looked	-6.25806
▁found	-6.259
▁loved	-6.2628
▁friend	-6.32003
▁back	-6.37111
▁Ben	-6.37207
▁go	-6.38143
▁park	-6.39473
▁toy	-6.39666
I	-6.40656
▁Sam	-6.40715
▁liked	-6.42299
▁like	-6.42839
▁would	-6.44003
▁felt	-6.44325
▁asked	-6.47072
▁started	-6.48666
▁new	-6.48914
▁came	-6.49645
▁make	-6.53215
▁want	-6.55116
▁see	-6.56681
▁smiled	-6.56991
▁small	-6.57869
▁Spot	-6.64011
▁out	-6.64303
▁put	-6.64629
▁something	-6.65229
▁away	-6.65291
▁what	-6.65517
▁made	-6.65544
▁from	-6.65812
▁home	-6.66519
▁playing	-6.67025
▁find	-6.67313
▁good	-6.68728
▁thought	-6.68779
▁other	-6.69821
▁Mia	-6.73932
▁ran	-6.74979
▁do	-6.75974
▁again	-6.77078
▁took	-6.77413
▁down	-6.77629
▁scared	-6.7819
▁toys	-6.78385
▁house	-6.78943
▁will	-6.79369
▁me	-6.79678
▁car	-6.81296
▁around	-6.82101
▁things	-6.82358
▁You	-6.83204
▁box	-6.833
▁when	-6.83429
▁lived	-6.84451
▁then	-6.84874
,"	-6.87643
▁some	-6.88366
▁your	-6.89332
▁my	-6.8941
▁an	-6.89723
▁Lucy	-6.91592
▁man	-6.93799
▁tried	-6.93854
▁got	-6.94934
▁says	-6.95761
▁many	-6.95845
▁we	-6.9879
▁about	-6.99091
▁know	-7.00513
▁red	-7.01933
▁who	-7.02375
▁So	-7.02582
▁knew	-7.02872
▁more	-7.04591
▁get	-7.05193
▁best	-7.07056
▁learned	-7.07214
▁became	-7.07221
▁water	-7.08663
▁laughed	-7.09719
▁outside	-7.09974
▁always	-7.10447
▁decided	-7.11848
▁because	-7.12164
▁room	-7.12281
▁into	-7.12699
▁And	-7.1403
▁both	-7.14151
▁Then	-7.15147
▁Mom	-7.16141
▁one	-7.17039
▁this	-7.17986
▁When	-7.18123
Yes	-7.19504
▁told	-7.21545
▁excited	-7.21847
▁inside	-7.2331
▁nice	-7.2404
▁His	-7.25219
▁dad	-7.25371
▁pretty	-7.26312
▁long	-7.27281
▁each	-7.29456
▁much	-7.29795
▁eat	-7.29807
▁gave	-7.29976
▁how	-7.30257
▁look	-7.32385
▁Bob	-7.33013
▁Anna	-7.33692
▁Amy	-7.34044
▁As	-7.34831
▁sun	-7.3489
▁sorry	-7.35791
▁take	-7.37609
▁every	-7.3847
▁old	-7.38915
▁fish	-7.39398
▁walked	-7.39773
▁fast	-7.41735
▁bear	-7.41766
▁We	-7.43271
▁food	-7.45467
▁as	-7.45715
▁just	-7.45869
▁animals	-7.46242
▁happened	-7.46466
▁Her	-7.47059
▁didn	-7.47322
▁sky	-7.47428
▁idea	-7.479
▁From	-7.48977
▁better	-7.49447
▁heard	-7.50673
▁no	-7.5152
▁kind	-7.51719
m	-7.52827
▁careful	-7.53299
▁share	-7.53323
▁if	-7.54083
▁let	-7.54404
▁flew	-7.55541
Thank	-7.55598
▁special	-7.56089
▁anymore	-7.56191
▁near	-7.56969
▁lots	-7.57301
▁never	-7.58255
▁by	-7.6039
▁don	-7.60467
▁its	-7.62658
▁shiny	-7.63849
▁rock	-7.64143
▁am	-7.64454
▁Sara	-7.65271
▁even	-7.65387
▁bug	-7.65469
▁safe	-7.65649
▁over	-7.66779
▁A	-7.67245
▁high	-7.67276
▁cake	-7.67377
▁come	-7.67645
Let	-7.67762
▁under	-7.67921
▁garden	-7.68545
You	-7.68808
▁run	-7.68825
▁surprised	-7.68891
▁opened	-7.69101
▁people	-7.69229
▁ground	-7.6981
▁unexpected	-7.69839
▁lot	-7.6988
▁hard	-7.69892
▁after	-7.69916
▁picked	-7.69923
▁feel	-7.70482
▁proud	-7.71027
▁bad	-7.71432
▁thanked	-7.71721
▁still	-7.72408
▁hugged	-7.73281
▁end	-7.73836
▁door	-7.73905
▁ever	-7.73939
▁jumped	-7.76884
▁way	-7.7711
▁say	-7.78932
▁family	-7.7899
▁hurt	-7.79062
▁fly	-7.79673
▁clean	-7.80109
▁blue	-7.80314
▁great	-7.80602
▁now	-7.82643
▁forest	-7.82747
▁Suddenly	-7.83117
▁try	-7.83593
No	-7.84083
▁give	-7.84115
▁love	-7.84442
▁loud	-7.85085
▁until	-7.85559
▁next	-7.86389
▁need	-7.87364
▁should	-7.87607
▁Sally	-7.88169
▁walk	-7.8873
▁beautiful	-7.89113
▁helped	-7.89123
▁happily	-7.89127
▁Kitty	-7.89206
▁frog	-7.89476
▁After	-7.89606
▁kids	-7.89811
▁showed	-7.90453
▁In	-7.90465
▁while	-7.91029
▁show	-7.91213
▁At	-7.91663
▁story	-7.92946
▁town	-7.93084
▁strong	-7.93199
▁place	-7.94389
▁listen	-7.94738
▁being	-7.94807
▁everyone	-7.94953
▁game	-7.94957
▁boat	-7.95737
▁stopped	-7.96432
▁magic	-7.96537
Can	-7.97179
▁angry	-7.97714
▁called	-7.97856
▁yummy	-8.00345
▁off	-8.00771
▁Let	-8.01144
▁ate	-8.01171
▁lost	-8.01316
▁mouse	-8.01696
▁or	-8.02143
▁couldn	-8.02707
e	-8.03369
▁Jack	-8.03927
It	-8.0446
▁warm	-8.04489
▁fell	-8.04511
▁green	-8.04786
▁wind	-8.04833
▁also	-8.05045
▁met	-8.05501
▁brave	-8.05753
▁two	-8.05843
▁soft	-8.05867
▁flowers	-8.0639
▁keep	-8.06667
What	-8.06794
▁noise	-8.06854
▁hole	-8.07034
▁where	-8.07296
▁truck	-8.07915
▁slide	-8.08399
▁open	-8.08954
▁soon	-8.0947
▁before	-8.09993
▁nodded	-8.10258
Hi	-8.10561
▁jump	-8.11083
▁Fluffy	-8.11312
▁hat	-8.1218
▁sat	-8.12288
▁book	-8.12618
▁kept	-8.12829
▁“	-8.13029
▁Now	-8.13249
▁smile	-8.13635
▁rabbit	-8.1376
Look	-8.14254
▁having	-8.14333
▁funny	-8.14464
?	-8.14651
▁store	-8.15697
▁hands	-8.16201
▁going	-8.16413
▁looking	-8.16736
▁bed	-8.16914
▁Can	-8.16937
▁squirrel	-8.17543
▁used	-8.17799
▁bunny	-8.18247
▁tired	-8.18315
▁hug	-8.18789
▁catch	-8.20257
We	-8.20348
That	-8.20609
▁birds	-8.21011
▁Every	-8.21241
▁pond	-8.22022
▁has	-8.22768
▁stick	-8.22776
▁kitchen	-8.22979
▁talk	-8.23058
▁watch	-8.23861
▁sunny	-8.23965
▁face	-8.24393
▁hand	-8.24416
▁party	-8.25393
▁our	-8.2589
▁others	-8.25935
▁eyes	-8.25975
Hello	-8.26349
▁first	-8.26805
▁flower	-8.27121
▁mommy	-8.27154
▁work	-8.27309
▁right	-8.2739
▁worked	-8.28164
▁race	-8.28385
▁use	-8.28664
▁cold	-8.28796
▁important	-8.29601
▁okay	-8.29622
▁shared	-8.29887
▁moral	-8.30277
Wow	-8.30925
▁mean	-8.30976
▁thing	-8.31656
▁making	-8.31687
▁curious	-8.32007
▁ice	-8.3241
▁began	-8.3252
▁us	-8.32559
▁rain	-8.32834
▁favorite	-8.33061
▁This	-8.3337
▁yard	-8.3365
▁head	-8.33838
Don	-8.34085
▁doll	-8.34336
▁learn	-8.34611
▁watched	-8.35423
▁here	-8.35424
▁behind	-8.36253
▁stay	-8.36341
▁surprise	-8.36344
▁agreed	-8.3643
-	-8.3731
▁Do	-8.37842
▁dress	-8.38638
▁climb	-8.39251
▁Bobo	-8.39921
▁closer	-8.40034
▁worry	-8.40128
ing	-8.40209
▁please	-8.40661
▁That	-8.4086
:	-8.40914
▁Jane	-8.40976
▁top	-8.41064
▁hill	-8.41258
▁walking	-8.41384
▁colors	-8.41431
▁table	-8.41475
▁floor	-8.41611
re	-8.41688
▁grass	-8.41722
▁tell	-8.42327
▁night	-8.42642
▁tall	-8.42855
▁tail	-8.42953
▁leaves	-8.42996
▁John	-8.43057
▁move	-8.43223
Mom	-8.43776
▁Timmy	-8.43818
▁bag	-8.4388
▁trees	-8.44034
▁dark	-8.44431
▁cried	-8.44474
▁picture	-8.44653
▁needed	-8.44843
▁turned	-8.44906
▁than	-8.44975
▁voice	-8.4503
Why	-8.45307
▁hungry	-8.45322
▁feeling	-8.45341
▁different	-8.4556
▁wait	-8.46412
▁cars	-8.46788
▁lady	-8.46848
▁stop	-8.46982
▁bright	-8.47012
▁lion	-8.476
▁full	-8.48014
’	-8.49137
▁far	-8.49846
▁paper	-8.50292
▁broken	-8.50424
▁wet	-8.50433
▁Mommy	-8.50595
▁yellow	-8.50921
▁friendly	-8.51097
▁All	-8.51363
▁another	-8.5164
▁touch	-8.51729
▁hot	-8.51733
▁ready	-8.51888
▁Mr	-8.52042
▁listened	-8.52233
▁climbed	-8.52422
▁fix	-8.5317
▁dance	-8.53614
▁cry	-8.54704
▁only	-8.55634
▁read	-8.55646
▁running	-8.55735
▁gone	-8.55865
▁Everyone	-8.56349
▁blocks	-8.56431
▁duck	-8.56985
▁sing	-8.57882
▁swing	-8.58104
▁Lila	-8.58539
▁think	-8.5875
▁does	-8.5882
▁laugh	-8.58917
▁goodbye	-8.59561
▁care	-8.59873
▁helping	-8.60359
ed	-8.60366
▁glad	-8.61187
▁reached	-8.61308
▁pushed	-8.61667
▁been	-8.62021
▁cream	-8.62198
▁hide	-8.62424
▁wished	-8.62901
▁Dad	-8.63248
▁sweet	-8.63576
▁pick	-8.64014
▁close	-8.64642
▁trying	-8.64929
▁Just	-8.65627
▁done	-8.65663
▁name	-8.65866
▁sound	-8.66472
▁held	-8.6649
▁Soon	-8.66604
▁apple	-8.66969
▁stuck	-8.67064
▁doing	-8.67075
▁moment	-8.67251
▁train	-8.67267
▁coming	-8.67297
▁baby	-8.67391
▁buy	-8.68388
▁scary	-8.68616
▁left	-8.69107
▁reach	-8.69368
▁dirty	-8.69828
▁sees	-8.69909
▁Fin	-8.69946
▁mess	-8.6995
▁explore	-8.70223
▁ask	-8.70278
▁replied	-8.70966
▁butterfly	-8.71047
▁There	-8.71211
▁tiny	-8.7129
▁looks	-8.71299
▁hear	-8.71548
▁through	-8.71631
▁shouted	-8.71797
▁wise	-8.72225
▁pulled	-8.72475
▁window	-8.72568
▁three	-8.72597
▁owl	-8.73556
▁sometimes	-8.73576
▁why	-8.73688
▁sit	-8.73946
▁sure	-8.73955
▁seen	-8.74122
▁woods	-8.74223
▁remembered	-8.74467
▁cool	-8.74499
▁must	-8.74623
▁clapped	-8.74741
▁pink	-8.74977
▁nest	-8.7503
▁job	-8.75471
▁colorful	-8.75534
▁bit	-8.75744
Oh	-8.76301
▁waited	-8.76357
▁waved	-8.7639
▁grabbed	-8.7676
▁bigger	-8.76816
▁Inside	-8.77173
▁song	-8.77535
▁stayed	-8.77562
▁lesson	-8.77604
▁rest	-8.7777
Okay	-8.77987
▁fire	-8.78803
▁broke	-8.79008
▁clothes	-8.79314
▁quickly	-8.80677
▁mouth	-8.80861
▁noticed	-8.8091
▁sleep	-8.81019
▁hair	-8.81293
▁Whil	-8.8141
▁enjoyed	-8.81797
▁Finally	-8.81896
▁hopped	-8.81968
▁	-8.81979
▁anything	-8.82185
▁Buddy	-8.82221
▁alone	-8.82239
▁blew	-8.82475
▁games	-8.82501
▁world	-8.82656
▁books	-8.82773
▁Daisy	-8.8282
▁adventure	-8.8341
▁pictures	-8.83452
▁sand	-8.8367
▁light	-8.84013
▁heavy	-8.84529
▁sea	-8.84746
▁turns	-8.84877
This	-8.84885
▁chair	-8.85497
▁himself	-8.85684
▁tower	-8.85705
▁won	-8.86267
▁threw	-8.86682
▁followed	-8.86883
▁grow	-8.87405
▁ride	-8.87491
▁everywhere	-8.88132
d	-8.88395
▁Tommy	-8.88623
▁What	-8.88956
▁draw	-8.90048
▁Sarah	-8.90232
▁swam	-8.90317
▁brother	-8.90478
▁wrong	-8.91332
▁air	-8.91539
▁fruit	-8.91712
▁white	-8.91969
▁paint	-8.92127
▁likes	-8.92296
▁forgot	-8.9273
▁castle	-8.93634
▁swim	-8.93695
▁round	-8.93802
▁cut	-8.93832
▁wall	-8.939
▁balloon	-8.93921
▁key	-8.94187
Do	-8.94244
▁own	-8.94349
▁leaf	-8.95462
▁farm	-8.95797
▁danced	-8.96022
▁wear	-8.96406
▁faster	-8.96817
".	-8.96861
▁Billy	-8.96941
▁makes	-8.97096
▁dry	-8.975
▁any	-8.9772
▁On	-8.97833
▁monster	-8.97848
▁might	-8.98006
▁talked	-8.98501
▁Joe	-8.98615
▁bike	-8.99027
▁brought	-8.99575
▁plan	-8.99846
▁ant	-9.00118
▁deep	-9.0021
▁cookies	-9.0023
▁mum	-9.00353
▁branch	-9.0059
▁fox	-9.00873
▁pretend	-9.01097
▁real	-9.01503
▁dinner	-9.01554
▁thank	-9.01833
▁someone	-9.01865
▁hit	-9.02436
▁bowl	-9.02876
▁win	-9.03585
▁beach	-9.03667
▁Maybe	-9.03744
▁finished	-9.04122
▁smart	-9.04152
▁wish	-9.0416
▁worried	-9.04542
▁tight	-9.04552
▁well	-9.0472
▁really	-9.04845
▁sharing	-9.04928
▁quiet	-9.0496
▁wants	-9.05445
▁understand	-9.06255
▁today	-9.06369
"	-9.06708
▁children	-9.06924
▁set	-9.06989
▁flying	-9.07236
▁join	-9.07371
▁filled	-9.07395
▁sang	-9.07458
▁rocks	-9.07659
▁river	-9.07996
▁silly	-9.0823
▁music	-9.0856
▁bite	-9.08709
▁pieces	-9.08754
▁sister	-9.09064
▁else	-9.09411
▁black	-9.09744
▁realized	-9.09913
▁side	-9.09974
▁fall	-9.10191
ll	-9.10292
▁eating	-9.10311
▁carefully	-9.10453
▁everything	-9.10703
▁sign	-9.10728
▁promised	-9.10954
▁bee	-9.1103
▁continued	-9.11041
▁orange	-9.11404
▁visit	-9.11409
▁star	-9.11539
▁cup	-9.1155
▁smiles	-9.11736
▁mud	-9.12108
▁secret	-9.12286
▁jar	-9.12304
▁enough	-9.12451
▁rolled	-9.12684
▁parents	-9.12807
▁build	-9.12885
▁soup	-9.13229
▁fairy	-9.13269
▁laughing	-9.13326
▁crying	-9.13997
▁fight	-9.14083
Maybe	-9.14141
▁yes	-9.14356
▁getting	-9.1459
▁leave	-9.15006
▁field	-9.15259
▁grandma	-9.15359
▁amazing	-9.16017
▁turn	-9.16033
▁Mimi	-9.16119
▁candy	-9.16205
▁welcome	-9.16436
▁words	-9.16766
▁perfect	-9.16773
▁gift	-9.16851
▁barked	-9.16913
▁without	-9.17038
▁bottle	-9.17127
▁wagged	-9.17371
▁moved	-9.18227
▁snake	-9.18244
▁living	-9.18276
▁higher	-9.18429
▁closed	-9.18768
▁mother	-9.18875
▁sitting	-9.19169
▁purple	-9.19504
▁money	-9.19556
▁owner	-9.19617
▁king	-9.19638
▁caught	-9.19714
!”	-9.19945
▁plant	-9.20463
▁strange	-9.2061
▁brown	-9.208
▁spot	-9.20811
▁morning	-9.20933
▁break	-9.2095
ir	-9.21048
▁asks	-9.21085
▁lonely	-9.2128
▁-	-9.2151
▁apples	-9.21684
▁talking	-9.21823
▁piece	-9.22026
▁dangerous	-9.22032
▁shining	-9.22113
▁shoes	-9.22136
.”	-9.22268
▁doctor	-9.22323
▁school	-9.22329
▁dream	-9.23161
▁crab	-9.23171
▁delicious	-9.23308
▁pot	-9.23566
▁thinks	-9.23846
▁dragon	-9.23915
▁slow	-9.24347
y	-9.24417
▁remember	-9.24623
▁puddle	-9.24776
▁blanket	-9.25083
▁animal	-9.25168
▁drink	-9.25172
▁farmer	-9.25247
▁mad	-9.25289
▁teddy	-9.25404
▁nose	-9.25833
▁Together	-9.26076
▁lake	-9.26132
▁treasure	-9.2652
▁Emma	-9.27148
▁stone	-9.27175
▁mine	-9.27233
▁wore	-9.27376
▁nap	-9.27431
▁herself	-9.27489
▁finally	-9.27518
▁cloud	-9.27624
▁kite	-9.2769
▁years	-9.27732
▁button	-9.27777
▁gentle	-9.27803
▁wings	-9.28546
▁road	-9.28734
▁same	-9.28808
But	-9.29172
▁runs	-9.29509
▁hoped	-9.29756
▁naughty	-9.29793
▁singing	-9.2981
▁woke	-9.29968
▁Molly	-9.30114
▁fit	-9.30455
Tim	-9.30682
▁hiding	-9.31222
▁bush	-9.31289
▁swings	-9.31613
▁sack	-9.31794
▁tasty	-9.3236
▁push	-9.32887
Please	-9.32915
▁dropped	-9.3296
▁start	-9.33316
▁rope	-9.33726
▁cheered	-9.33779
▁bring	-9.34378
OK	-9.3495
▁puppy	-9.34965
▁hold	-9.35149
▁bench	-9.35239
▁twins	-9.35892
▁shop	-9.35915
▁Whiskers	-9.35952
▁Mark	-9.36262
▁pull	-9.36438
▁village	-9.36542
▁Lisa	-9.36792
▁Bella	-9.36948
▁shapes	-9.37432
▁course	-9.3745
▁monkey	-9.37615
▁cow	-9.37615
▁lunch	-9.37638
▁follow	-9.37724
▁treat	-9.37946
▁snow	-9.38165
▁cute	-9.38939
▁Remy	-9.39131
▁able	-9.39206
▁most	-9.39291
▁slowly	-9.39332
▁juice	-9.39387
▁shook	-9.39515
▁grew	-9.39676
▁pile	-9.39729
▁cheese	-9.3974
▁plane	-9.39893
▁teacher	-9.40103
▁touched	-9.40301
▁arrived	-9.40744
▁hid	-9.41004
▁Grandma	-9.412
▁birthday	-9.41232
▁fence	-9.41232
▁promise	-9.41446
▁Blue	-9.41615
▁pet	-9.41696
▁rainbow	-9.41856
▁joy	-9.42281
▁robot	-9.42315
▁forever	-9.42344
▁storm	-9.42481
▁coat	-9.42521
▁street	-9.42553
▁elephant	-9.42554
▁sounds	-9.42589
▁helpful	-9.42741
▁Jill	-9.42869
▁wonderful	-9.42946
Tom	-9.43102
▁Thank	-9.43108
▁few	-9.43344
▁busy	-9.43386
▁believe	-9.43564
▁bugs	-9.44487
▁dolls	-9.44564
ly	-9.44862
▁teach	-9.4556
▁upset	-9.46152
▁bread	-9.46324
▁cave	-9.46358
▁amazed	-9.46462
▁Later	-9.46565
▁towards	-9.46613
▁shy	-9.46737
▁turtle	-9.47015
▁throw	-9.47093
▁land	-9.4729
▁snack	-9.47331
▁feels	-9.47339
▁heart	-9.47399
▁holding	-9.4749
▁young	-9.4775
▁enjoy	-9.48261
▁string	-9.48455
▁ugly	-9.48513
▁sharp	-9.4883
▁honey	-9.489
▁patient	-9.49069
▁dirt	-9.49173
▁stories	-9.49183
▁free	-9.49487
▁letter	-9.4953
▁bell	-9.49607
▁late	-9.4964
▁roll	-9.50161
▁cookie	-9.50313
▁Fred	-9.50392
▁cook	-9.50708
▁cloth	-9.50928
▁horse	-9.51106
The	-9.5117
▁pocket	-9.51323
▁kitten	-9.5154
▁milk	-9.51726
▁magical	-9.51871
▁happen	-9.5194
▁driver	-9.52128
▁hugs	-9.52275
▁bus	-9.52295
▁taking	-9.52418
▁treats	-9.52443
▁Leo	-9.52454
▁basket	-9.5271
▁noises	-9.52774
▁fighting	-9.53405
▁bow	-9.53407
▁bucket	-9.54014
▁gray	-9.54447
▁count	-9.54639
▁lucky	-9.54673
▁line	-9.54953
▁princess	-9.55121
▁Mary	-9.55158
▁spoon	-9.55406
▁drove	-9.55421
▁spicy	-9.55421
▁wide	-9.55568
▁coin	-9.55749
▁rude	-9.56025
▁fair	-9.56205
Lily	-9.5658
▁bone	-9.56703
▁moon	-9.56709
▁sick	-9.56747
▁wild	-9.56786
Hey	-9.57094
Good	-9.57114
Sure	-9.57153
▁seek	-9.57179
▁last	-9.57283
▁huge	-9.5733
Of	-9.57344
▁giant	-9.57436
▁Mama	-9.57514
▁Luna	-9.57591
▁stars	-9.57665
▁cannot	-9.57783
▁whistle	-9.57962
▁taste	-9.58119
▁grumpy	-9.58285
▁wave	-9.58393
▁spider	-9.5864
▁sail	-9.58747
▁instead	-9.58946
▁life	-9.59063
▁songs	-9.59253
▁trip	-9.59268
▁snowman	-9.59298
▁hidden	-9.59847
▁machine	-9.60218
▁Come	-9.60373
▁oven	-9.61154
▁chased	-9.61243
▁With	-9.61273
▁path	-9.61537
▁confused	-9.61593
▁fixed	-9.62009
▁Daddy	-9.63007
▁shake	-9.63037
▁wasn	-9.63043
▁shelf	-9.63086
▁shell	-9.63161
▁landed	-9.63188
▁messy	-9.63558
▁fruits	-9.63568
▁change	-9.63681
▁sticks	-9.64454
▁sour	-9.64702
▁suddenly	-9.64768
▁daddy	-9.64813
▁tea	-9.65074
▁part	-9.65119
▁later	-9.65517
▁smooth	-9.65638
▁missed	-9.65857
▁bought	-9.66056
▁adventures	-9.66084
▁write	-9.66151
▁problem	-9.66156
▁selfish	-9.66349
▁drive	-9.66489
▁wash	-9.66563
▁seat	-9.66719
▁legs	-9.66736
▁backyard	-9.66854
▁Doggy	-9.67024
▁Momo	-9.67059
▁balls	-9.67194
▁phone	-9.67404
▁Chirpy	-9.6749
▁fur	-9.67531
▁stepped	-9.6766
?”	-9.67875
▁beak	-9.68026
▁drew	-9.68086
▁ducks	-9.68106
▁tie	-9.68142
▁save	-9.68243
▁wolf	-9.68257
▁smelly	-9.68265
▁Jerry	-9.683
▁interesting	-9.68386
▁empty	-9.68428
▁carry	-9.68465
▁across	-9.68686
▁leg	-9.68808
▁whole	-9.69111
▁forget	-9.69539
▁lay	-9.6957
▁comes	-9.70356
▁healthy	-9.70423
▁though	-9.70486
▁Bunny	-9.70815
▁clouds	-9.70855
▁hop	-9.71138
▁grateful	-9.71298
▁Ollie	-9.71299
▁plate	-9.71306
▁watching	-9.71441
▁clever	-9.71475
▁fake	-9.71564
Come	-9.71637
▁child	-9.71696
▁pillow	-9.71796
▁splash	-9.7183
▁puzzle	-9.72005
▁seemed	-9.72146
▁takes	-9.72644
▁sheep	-9.72648
▁pig	-9.72828
▁faces	-9.72962
▁Cat	-9.73291
▁net	-9.73484
▁Jimmy	-9.73801
▁mix	-9.74161
▁fancy	-9.74163
▁longer	-9.74268
▁wondered	-9.74355
▁along	-9.74436
▁arms	-9.74493
▁sleepy	-9.74551
▁anyone	-9.74847
▁finish	-9.7494
▁arm	-9.7511
▁crayons	-9.75272
▁egg	-9.75571
▁easy	-9.7558
n	-9.75603
▁Bobby	-9.75814
▁Ann	-9.76039
▁stand	-9.76104
▁honest	-9.76217
▁maybe	-9.76227
▁trouble	-9.76399
▁such	-9.76692
▁color	-9.76742
▁lock	-9.76966
▁paw	-9.76971
▁Jen	-9.77065
▁weak	-9.7725
▁hope	-9.77274
▁drum	-9.77441
▁saved	-9.77455
▁working	-9.77493
▁wing	-9.7759
▁smelled	-9.77598
▁stood	-9.77768
▁forgive	-9.77855
▁deer	-9.78005
▁spin	-9.78152
▁ring	-9.78416
▁shirt	-9.78486
▁front	-9.78762
▁pool	-9.78857
▁bossy	-9.78859
▁pizza	-9.79
▁smell	-9.79395
▁ship	-9.79491
▁rocket	-9.79541
▁plants	-9.79703
▁nothing	-9.79717
▁meet	-9.79744
▁zoo	-9.80043
▁Why	-9.80062
▁jumping	-9.80079
▁Mum	-9.80105
▁onto	-9.8019
▁tidy	-9.80224
▁ants	-9.80866
▁carrot	-9.80902
▁daughter	-9.80924
▁pointed	-9.80931
▁calm	-9.80941
▁gives	-9.81085
▁waiting	-9.81254
▁building	-9.8178
▁worm	-9.81785
▁cozy	-9.82195
▁My	-9.82359
▁gently	-9.82788
▁furry	-9.83086
▁sandwich	-9.83182
▁goes	-9.83713
▁couch	-9.83782
▁tomorrow	-9.83832
▁lift	-9.84037
▁bounce	-9.8437
▁pretended	-9.84628
▁true	-9.84636
▁teeth	-9.84989
▁Tiny	-9.85192
My	-9.85229
▁woman	-9.85243
▁ashamed	-9.85395
▁large	-9.85697
▁cleaned	-9.85895
Be	-9.86058
▁lovely	-9.86117
▁queen	-9.86117
▁person	-9.86262
▁swimming	-9.86262
▁rich	-9.86351
▁screamed	-9.86579
▁mirror	-9.86828
▁ladder	-9.87086
▁scarf	-9.87144
▁Benny	-9.87356
▁boring	-9.87916
▁Ducky	-9.87917
▁splashed	-9.88198
▁afraid	-9.88229
▁mail	-9.88292
▁year	-9.88311
▁mind	-9.8841
▁circle	-9.88465
er	-9.88506
▁creative	-9.88595
▁map	-9.88753
▁chocolate	-9.88805
▁places	-9.88906
▁appeared	-9.88914
▁loves	-9.89173
▁dig	-9.89438
▁live	-9.89663
▁powerful	-9.90236
▁nearby	-9.90237
▁Please	-9.90421
▁noisy	-9.90448
▁pie	-9.90547
▁number	-9.90686
▁wand	-9.9071
▁TV	-9.90716
▁lazy	-9.90769
▁grab	-9.91191
▁lemon	-9.91897
▁mysterious	-9.91955
▁answer	-9.91965
▁hello	-9.92338
▁expensive	-9.92609
▁smiling	-9.92609
▁tape	-9.92809
▁note	-9.92823
▁drank	-9.92882
▁vase	-9.93211
▁wearing	-9.9327
▁Bear	-9.9339
▁weird	-9.93431
▁polite	-9.93533
▁poor	-9.93541
▁card	-9.93585
▁gate	-9.93596
▁nervous	-9.94475
▁prince	-9.94534
Now	-9.94648
▁rough	-9.94817
▁dogs	-9.9511
▁tries	-9.95152
▁carried	-9.95321
▁dancing	-9.95376
▁whale	-9.95433
▁bridge	-9.95509
▁Sometimes	-9.95603
▁fat	-9.9577
▁kiss	-9.95862
▁tasted	-9.95903
▁Ella	-9.9594
▁joke	-9.95949
▁knee	-9.96015
▁protect	-9.96067
a	-9.96105
▁generous	-9.96109
▁embarrassed	-9.96339
Stop	-9.96377
▁print	-9.96486
▁sugar	-9.96506
▁flag	-9.96589
▁test	-9.96692
▁picnic	-9.96847
▁seed	-9.96948
▁tent	-9.96983
Help	-9.97003
▁rare	-9.97075
▁matter	-9.97086
▁chase	-9.97091
▁balloons	-9.97139
▁brush	-9.97203
▁clown	-9.9745
▁feet	-9.97475
▁band	-9.97532
▁word	-9.97567
▁peaceful	-9.97812
▁call	-9.97931
▁lose	-9.97932
▁bald	-9.97935
▁nut	-9.97972
▁clock	-9.97993
▁match	-9.98181
▁dizzy	-9.98223
▁famous	-9.98397
▁Andy	-9.98621
▁closet	-9.98735
▁Don	-9.98829
▁journey	-9.98919
▁jam	-9.9921
ever	-9.99313
▁fine	-9.99535
▁pumpkin	-9.99549
▁yarn	-9.99854
▁lamp	-9.99912
▁cage	-10.0003
▁yelled	-10.0016
▁Jim	-10.0038
▁wood	-10.0044
▁glue	-10.0049
▁pen	-10.0052
▁balance	-10.0066
▁knocked	-10.0075
▁bake	-10.0108
▁elderly	-10.0115
▁icy	-10.0121
▁corner	-10.0128
▁drawing	-10.0128
▁become	-10.0145
▁organized	-10.0146
▁sock	-10.0228
▁Jenny	-10.0229
▁zoom	-10.0233
▁scissors	-10.0235
▁shoe	-10.0242
▁these	-10.031
▁wheel	-10.0315
▁mixed	-10.0352
▁spent	-10.0362
▁incredible	-10.0368
▁Sammy	-10.037
▁thin	-10.0382
▁soap	-10.0383
▁painted	-10.0392
▁glass	-10.0417
▁normal	-10.0436
▁log	-10.0444
▁which	-10.0448
▁cone	-10.0475
▁kick	-10.0477
▁kicked	-10.0481
▁roar	-10.0483
▁fragile	-10.0503
▁wouldn	-10.0512
▁berries	-10.0522
▁mighty	-10.0525
▁relieved	-10.0541
ting	-10.0561
▁hero	-10.0563
▁comfortable	-10.0622
▁barn	-10.0628
▁stubborn	-10.0634
Mommy	-10.0639
▁glow	-10.0649
Max	-10.0651
▁unique	-10.0653
▁cart	-10.0653
▁frightened	-10.0659
▁clear	-10.0673
▁towel	-10.0675
▁understood	-10.0684
▁hose	-10.0716
▁eggs	-10.0723
▁fierce	-10.076
▁breath	-10.0803
▁thick	-10.081
▁Rex	-10.0811
▁spoiled	-10.0831
▁finding	-10.0834
Where	-10.0848
▁jealous	-10.0869
▁exploring	-10.0875
▁feed	-10.0879
▁frustrated	-10.0888
▁neck	-10.0888
▁taught	-10.0894
▁asking	-10.0903
▁dug	-10.0907
▁necklace	-10.0912
▁clay	-10.0914
▁measure	-10.0919
▁value	-10.0919
▁gun	-10.0919
▁clumsy	-10.092
▁waves	-10.0951
▁nosy	-10.0959
▁tough	-10.0965
▁crown	-10.0971
▁unusual	-10.0972
▁branches	-10.0972
▁dinosaur	-10.0977
▁ancient	-10.0978
▁fill	-10.0981
▁board	-10.1011
▁chest	-10.1017
▁shark	-10.103
▁spread	-10.108
▁scare	-10.1081
▁dove	-10.1082
▁bathroom	-10.1096
▁wagon	-10.1102
▁wrap	-10.1109
▁clap	-10.1109
▁dead	-10.1135
▁mountain	-10.1137
▁block	-10.114
▁rat	-10.1148
▁useful	-10.1155
▁foot	-10.1161
▁pay	-10.1172
▁searched	-10.1183
▁dull	-10.1194
▁sword	-10.1222
▁foolish	-10.1281
▁To	-10.1296
▁thankful	-10.1332
▁paws	-10.1355
▁body	-10.1362
▁bath	-10.1363
▁No	-10.1377
▁crazy	-10.1395
▁mistake	-10.1397
▁unknown	-10.1415
▁Many	-10.1422
▁step	-10.1425
▁Be	-10.1435
▁zip	-10.1442
▁hears	-10.1451
▁How	-10.1457
▁twist	-10.1458
▁washed	-10.1473
▁knowing	-10.1474
▁difficult	-10.1483
▁guitar	-10.1483
▁witch	-10.1518
▁adventurous	-10.1545
▁wake	-10.1552
▁3	-10.1563
▁ending	-10.1591
▁kid	-10.1611
▁goat	-10.1617
▁jog	-10.1621
▁bored	-10.1642
▁wrote	-10.1642
▁spray	-10.1648
▁wealthy	-10.1649
▁chicken	-10.1652
▁bubbles	-10.1668
▁cross	-10.1679
▁covered	-10.1685
▁changed	-10.1686
▁nuts	-10.1686
▁group	-10.1701
▁smaller	-10.1736
▁finger	-10.1744
▁pain	-10.1749
▁gold	-10.1753
▁fan	-10.176
▁pan	-10.1764
▁solve	-10.178
▁yourself	-10.1795
▁Little	-10.1795
▁gloomy	-10.1816
▁hairy	-10.182
▁joined	-10.1822
▁team	-10.1837
▁shore	-10.1837
▁tiger	-10.1849
▁shadow	-10.185
▁police	-10.1851
▁umbrella	-10.1852
▁snacks	-10.1857
▁jet	-10.1866
▁jungle	-10.1866
▁salad	-10.1866
▁exciting	-10.188
▁bitter	-10.188
Here	-10.1894
▁rose	-10.1907
▁moving	-10.1908
▁counted	-10.1919
▁mailbox	-10.1923
▁seeds	-10.1948
▁corn	-10.1964
▁raven	-10.1965
▁horn	-10.1979
▁asleep	-10.198
▁cheap	-10.1994
▁flexible	-10.2001
▁square	-10.2007
▁enormous	-10.2044
▁prize	-10.2059
▁brilliant	-10.2066
▁pass	-10.2076
▁Will	-10.2087
▁delicate	-10.2095
▁independent	-10.2102
Ben	-10.2116
▁banana	-10.2131
▁loyal	-10.2138
▁thirsty	-10.2139
▁butter	-10.2149
Are	-10.2162
▁vegetables	-10.2168
▁jolly	-10.219
▁sunshine	-10.2204
▁parrot	-10.2212
▁terrible	-10.2212
▁hoop	-10.2219
▁sighed	-10.2219
▁swan	-10.2219
▁explained	-10.222
▁space	-10.2241
▁Instead	-10.2241
▁chew	-10.2252
▁nods	-10.2258
▁search	-10.2266
▁sauce	-10.2271
Who	-10.2276
▁Go	-10.2287
▁fountain	-10.2293
▁Some	-10.23
Sorry	-10.2306
▁act	-10.2319
▁hammer	-10.2322
▁original	-10.2322
▁goose	-10.2327
▁stupid	-10.233
▁market	-10.2337
▁Jake	-10.2345
▁stage	-10.2359
▁stones	-10.2367
▁obedient	-10.2374
▁smoke	-10.2382
▁march	-10.2385
▁miss	-10.24
▁stove	-10.2427
▁tied	-10.2429
▁caterpillar	-10.2449
lmost	-10.2457
▁fridge	-10.2464
▁medicine	-10.2464
▁miserable	-10.2464
▁Peter	-10.2464
▁Your	-10.2475
▁taxi	-10.2479
▁scale	-10.2489
▁sunflower	-10.2489
▁disgusting	-10.2502
▁mole	-10.2532
▁successful	-10.2539
▁tank	-10.254
▁pepper	-10.2542
▁dough	-10.2562
▁rug	-10.2562
▁Today	-10.257
▁belonged	-10.2572
▁raced	-10.2603
▁modern	-10.2608
▁pants	-10.2608
▁four	-10.2616
▁trust	-10.2619
▁decide	-10.2622
▁thoughtful	-10.2628
▁escape	-10.2637
▁popcorn	-10.2639
▁choose	-10.2639
▁knife	-10.2646
▁carrots	-10.2665
▁wonder	-10.2669
▁Emily	-10.2677
▁standing	-10.2681
▁hay	-10.27
▁dependable	-10.2723
▁reliable	-10.2731
▁cheerful	-10.2733
▁sink	-10.2739
▁spotted	-10.2739
▁careless	-10.2755
▁hats	-10.2768
▁crawled	-10.2771
▁shine	-10.2796
▁cube	-10.2798
▁island	-10.2802
▁melon	-10.2805
▁meal	-10.2811
▁statue	-10.2821
▁crane	-10.2832
▁squash	-10.2839
▁garage	-10.284
▁eager	-10.2847
▁middle	-10.2895
▁lifted	-10.2929
▁crayon	-10.2932
▁playful	-10.2954
▁fearful	-10.2958
▁bottom	-10.2965
▁bedroom	-10.2965
▁filthy	-10.2973
▁jelly	-10.2973
se	-10.2975
▁barber	-10.2997
▁impressive	-10.3021
▁toast	-10.3036
▁lead	-10.304
▁jacket	-10.3059
▁mask	-10.3091
▁present	-10.3099
▁hopping	-10.3101
▁using	-10.3101
▁uncomfortable	-10.3109
▁spring	-10.3115
▁taken	-10.3128
r	-10.3132
▁lizard	-10.3133
▁popular	-10.3133
▁boats	-10.3139
▁creature	-10.314
▁trick	-10.3153
▁flute	-10.3157
▁happiness	-10.3173
▁cries	-10.3181
▁True	-10.3189
▁pasta	-10.3214
▁desk	-10.3222
▁aunt	-10.323
▁cereal	-10.3238
▁movie	-10.3246
▁shoot	-10.3249
▁diamond	-10.3254
▁tricks	-10.3255
▁Even	-10.3262
▁jeep	-10.3271
▁pencil	-10.3295
▁wrapped	-10.3303
▁humble	-10.3311
▁comb	-10.3318
▁add	-10.3332
▁camera	-10.3341
▁cactus	-10.3344
▁ruined	-10.3369
▁troubled	-10.338
▁built	-10.3394
▁feather	-10.3394
▁cap	-10.3405
▁jug	-10.341
▁gum	-10.3423
▁triangle	-10.3427
▁slipped	-10.3443
▁harder	-10.345
▁belong	-10.3451
▁passed	-10.3454
▁pipe	-10.3468
Sam	-10.3475
▁whispered	-10.3502
▁locked	-10.3505
▁bracelet	-10.3511
▁mop	-10.3535
▁tears	-10.3542
▁licked	-10.3544
▁helmet	-10.3545
▁painting	-10.3555
▁fluffy	-10.356
▁anxious	-10.3568
▁figure	-10.3579
▁spend	-10.3586
▁kissed	-10.3613
▁suit	-10.3638
▁ordinary	-10.3644
▁boxes	-10.3645
▁flashlight	-10.3653
▁Brown	-10.3661
▁crocodile	-10.3661
▁pale	-10.3678
▁bicycle	-10.3695
▁serious	-10.3703
▁office	-10.3704
▁lit	-10.3704
▁collar	-10.3712
▁vine	-10.3732
▁louder	-10.3736
▁comet	-10.3742
▁onion	-10.3744
How	-10.3745
▁roof	-10.3747
▁deaf	-10.3755
▁invited	-10.3756
▁shows	-10.3778
cream	-10.3779
▁helpless	-10.3786
▁forward	-10.3789
▁belt	-10.3801
▁practiced	-10.3807
▁low	-10.381
▁harsh	-10.3824
▁giving	-10.3841
▁beetle	-10.3853
▁pigeon	-10.3853
▁yours	-10.386
p	-10.3866
▁harmless	-10.3876
▁thread	-10.3884
▁mug	-10.3893
▁volcano	-10.3902
▁broccoli	-10.3919
▁radio	-10.3919
▁piano	-10.3928
▁tube	-10.3933
▁needs	-10.3947
▁ocean	-10.3954
▁shade	-10.3954
▁eraser	-10.3954
▁walks	-10.3962
▁cover	-10.3972
▁rode	-10.3979
▁chubby	-10.398
▁meant	-10.3983
▁carpet	-10.3989
▁respect	-10.4003
▁disappointed	-10.4006
▁dish	-10.4015
▁helicopter	-10.4015
▁crystal	-10.4024
▁friendship	-10.4024
▁bean	-10.4036
▁shape	-10.4036
▁cocoa	-10.4068
▁tomato	-10.4077
▁poured	-10.4087
▁soar	-10.4089
▁regular	-10.4103
▁glove	-10.4109
▁charming	-10.4121
▁power	-10.4126
▁tunnel	-10.4135
▁van	-10.4148
▁picks	-10.4151
▁create	-10.4155
▁persistent	-10.4157
▁Lulu	-10.4157
▁gifted	-10.4163
▁bull	-10.4171
▁alert	-10.4183
▁gem	-10.4189
▁stronger	-10.4189
▁angel	-10.4198
u	-10.4228
▁guess	-10.4233
▁learning	-10.4237
▁guilty	-10.4237
▁sleeping	-10.4239
▁borrow	-10.4244
▁screen	-10.4246
▁shield	-10.4246
▁candle	-10.4262
▁shrimp	-10.4264
▁ears	-10.4267
▁cushion	-10.4271
▁graceful	-10.4272
▁intelligent	-10.4273
▁hurts	-10.4294
▁answered	-10.4294
▁nod	-10.4296
▁sell	-10.4297
▁pebble	-10.4298
Go	-10.4299
▁speed	-10.4307
▁celebrate	-10.4326
▁restless	-10.4328
▁yacht	-10.4336
▁turkey	-10.4373
▁thief	-10.4382
▁slid	-10.4409
▁Polly	-10.4409
▁bushes	-10.441
▁spun	-10.4418
▁trumpet	-10.4428
▁Alice	-10.4428
▁design	-10.4429
▁computer	-10.4437
▁hunter	-10.4437
▁crack	-10.4442
▁questions	-10.4442
▁Buzz	-10.4445
▁leopard	-10.4446
▁Poppy	-10.4446
▁OK	-10.445
▁fork	-10.4452
▁tag	-10.4459
▁aeroplane	-10.4463
▁potato	-10.4464
▁envious	-10.4464
▁spaghetti	-10.4464
▁engine	-10.4481
o	-10.4503
▁raft	-10.451
▁rice	-10.4519
▁avocado	-10.4528
▁nurse	-10.4529
▁returned	-10.453
▁skin	-10.4538
A	-10.4538
▁tray	-10.4547
▁sailed	-10.4552
▁Susie	-10.4557
▁truth	-10.4584
▁ignorant	-10.4584
▁neighbor	-10.4593
▁sort	-10.4599
▁tooth	-10.4599
▁happening	-10.4599
▁feathers	-10.4602
▁track	-10.4603
▁bees	-10.4606
▁stamp	-10.4621
▁adorable	-10.4631
▁trunk	-10.4631
▁coins	-10.4634
▁half	-10.465
▁class	-10.4668
▁hook	-10.4668
▁mushroom	-10.4668
▁sweater	-10.4678
▁celery	-10.4678
▁forth	-10.4678
▁insect	-10.4678
▁sheet	-10.4679
▁rub	-10.4687
▁mill	-10.4696
▁competitive	-10.4697
▁envelope	-10.4697
▁dreams	-10.4706
▁eventually	-10.4706
▁Mummy	-10.4706
▁bloom	-10.473
▁shells	-10.4736
▁perform	-10.474
▁uncle	-10.4753
▁attic	-10.4753
▁impatient	-10.4763
▁ghost	-10.4763
▁Tina	-10.4772
▁knot	-10.4782
▁cleaning	-10.4786
▁order	-10.479
▁meat	-10.4791
▁stuff	-10.4796
▁barrel	-10.4801
▁hospital	-10.481
▁wheat	-10.481
▁study	-10.4817
▁arrow	-10.4817
▁dolphin	-10.4821
▁cooked	-10.4824
▁radish	-10.4829
▁city	-10.4829
▁stream	-10.4839
▁tap	-10.4842
▁attractive	-10.4867
▁library	-10.4867
▁travel	-10.4873
▁ink	-10.4876
▁bubble	-10.4878
▁blow	-10.4885
▁gets	-10.4894
▁metal	-10.4911
Me	-10.4913
▁cauliflower	-10.4915
▁hippo	-10.4915
▁alligator	-10.4925
▁rubbed	-10.4934
▁trap	-10.4936
▁lively	-10.4955
▁themselves	-10.4963
▁counting	-10.4969
▁speak	-10.4974
up	-10.4976
▁ones	-10.4978
▁yogurt	-10.4992
▁lying	-10.5002
▁slept	-10.5002
▁fold	-10.5016
▁wheels	-10.5019
▁chain	-10.5021
▁judge	-10.5051
▁houses	-10.5052
▁record	-10.5056
▁purse	-10.506
▁haircut	-10.5122
▁needle	-10.5126
▁parade	-10.5129
▁curtain	-10.5132
▁wiped	-10.514
▁tire	-10.5141
▁dive	-10.5148
▁violin	-10.5149
▁compassionate	-10.5158
▁tummy	-10.5158
▁bounced	-10.5161
▁jewel	-10.5162
Sue	-10.5167
▁bandage	-10.5172
▁pit	-10.5177
▁soldier	-10.5182
▁octopus	-10.5188
▁gathered	-10.5209
▁chess	-10.5218
▁wallet	-10.5218
▁nicely	-10.5219
▁loop	-10.5221
▁question	-10.523
Giv	-10.5243
▁marry	-10.5247
▁armchair	-10.5267
▁calling	-10.5271
▁flame	-10.5271
▁journal	-10.5277
▁seal	-10.5285
▁biggest	-10.5287
▁mixer	-10.5289
▁magnet	-10.5291
▁lollipop	-10.5302
▁walls	-10.5309
▁kayak	-10.5317
▁decorate	-10.5326
▁skip	-10.5337
▁motorcycle	-10.5337
▁notebook	-10.5337
▁father	-10.5337
▁crawl	-10.5338
▁rod	-10.5338
▁falls	-10.534
▁ambulance	-10.5347
▁collect	-10.5353
▁pony	-10.5367
▁wire	-10.5372
▁folder	-10.5379
▁disappeared	-10.5379
▁stranger	-10.5384
le	-10.5412
▁loudly	-10.5429
▁acorn	-10.5433
▁unlock	-10.5436
▁strawberry	-10.5438
▁showing	-10.5439
▁club	-10.5448
▁saying	-10.5463
▁cupboard	-10.5469
▁grown	-10.5471
▁scooter	-10.5474
▁yet	-10.5479
▁scream	-10.548
▁pointing	-10.548
▁pack	-10.5485
▁skipped	-10.5489
▁determined	-10.5499
▁coal	-10.5499
▁peach	-10.5509
▁case	-10.5509
▁distant	-10.5509
▁steal	-10.5517
▁shut	-10.553
▁steak	-10.553
▁kindness	-10.5543
▁behave	-10.5549
▁lights	-10.5555
▁salt	-10.5559
▁chalk	-10.5571
▁cricket	-10.5581
▁driving	-10.5581
▁costume	-10.5587
▁modest	-10.5601
▁numbers	-10.5614
▁bathtub	-10.5622
▁split	-10.5622
▁diary	-10.5643
▁laughs	-10.5649
▁less	-10.5653
▁rag	-10.5654
▁Birdy	-10.5654
▁boot	-10.5656
▁oyster	-10.566
▁lime	-10.566
▁marble	-10.566
▁playground	-10.5663
▁bin	-10.5663
▁jellyfish	-10.5684
▁Pete	-10.5694
▁elevator	-10.5694
▁skeleton	-10.5705
▁shout	-10.5708
▁waffle	-10.5712
▁stir	-10.5715
▁ear	-10.5742
▁pin	-10.5761
▁brothers	-10.577
▁station	-10.5778
▁cable	-10.5788
▁vest	-10.5799
▁tripped	-10.5799
▁added	-10.5812
▁ten	-10.5815
▁spinning	-10.582
▁film	-10.5828
▁pirate	-10.5849
▁cord	-10.5851
▁spear	-10.5852
▁penny	-10.5852
▁People	-10.5862
▁relax	-10.5879
▁hang	-10.588
▁once	-10.5882
▁pole	-10.5884
▁ways	-10.5886
▁meadow	-10.5904
▁stretch	-10.591
▁heal	-10.5929
▁dessert	-10.5947
▁mattress	-10.5958
▁rise	-10.5958
▁baseball	-10.5979
▁flea	-10.5988
▁poke	-10.5988
▁Zoom	-10.5989
▁missile	-10.6
▁Rose	-10.6
▁video	-10.601
▁tool	-10.6016
▁send	-10.602
▁drawings	-10.6022
▁medal	-10.6022
▁pastry	-10.6022
▁polish	-10.6028
▁Betty	-10.6043
▁football	-10.6043
▁automobile	-10.6054
▁bags	-10.6065
▁packed	-10.6088
▁reading	-10.6093
▁Bessie	-10.6097
▁led	-10.6098
▁cats	-10.6106
▁cop	-10.6112
See	-10.6117
▁wife	-10.6119
▁hotel	-10.612
▁zebra	-10.614
▁itself	-10.6141
▁powder	-10.6141
▁drawer	-10.6143
▁makeup	-10.6146
▁stack	-10.615
▁mild	-10.6151
▁mosquito	-10.6162
▁wishes	-10.6164
▁edge	-10.6173
▁cooler	-10.6177
▁sausage	-10.6184
▁bark	-10.6202
▁sneeze	-10.6226
▁gorilla	-10.6228
▁package	-10.6228
▁zipper	-10.6228
▁drop	-10.6228
▁muffin	-10.6228
▁twig	-10.6228
▁guard	-10.6237
▁Mrs	-10.6237
▁microphone	-10.6239
▁veil	-10.6239
▁Spike	-10.6239
▁golf	-10.6239
▁oil	-10.6272
▁math	-10.6283
▁glowing	-10.6287
▁motor	-10.6294
▁organize	-10.6304
▁trophy	-10.6305
▁yoga	-10.6316
▁ok	-10.6327
Well	-10.6338
▁buttons	-10.6348
▁tear	-10.6349
▁those	-10.636
▁sunglasses	-10.6371
▁kangaroo	-10.6382
▁leash	-10.6394
▁thunder	-10.6416
▁photo	-10.6417
▁eye	-10.6418
▁shocked	-10.6428
▁handle	-10.6429
▁pear	-10.6429
▁support	-10.6434
▁quarrel	-10.6434
▁bananas	-10.6438
▁managed	-10.6439
▁pill	-10.644
▁tools	-10.6449
▁skull	-10.6449
▁Zip	-10.6472
▁mint	-10.6474
▁trucks	-10.6482
▁iron	-10.6483
▁deliver	-10.6489
▁bathrobe	-10.6494
▁Next	-10.6495
es	-10.6507
▁minutes	-10.6509
▁nail	-10.6519
▁faucet	-10.6528
▁pine	-10.6532
▁enthusiastic	-10.654
▁cooking	-10.6547
▁Toby	-10.6551
▁fireman	-10.6585
▁message	-10.6596
▁early	-10.6631
▁stairs	-10.6631
▁view	-10.6642
▁realised	-10.6642
▁rolling	-10.6649
▁marched	-10.6656
▁hockey	-10.6665
▁Kim	-10.6665
▁reindeer	-10.6676
▁may	-10.6688
▁excitement	-10.6688
▁enjoying	-10.6695
▁pour	-10.6698
▁church	-10.6699
▁Miss	-10.671
▁factory	-10.6711
▁hanger	-10.6714
▁cups	-10.6721
▁ow	-10.6722
▁wool	-10.6734
▁igloo	-10.6745
▁basketball	-10.6757
▁spell	-10.676
▁dust	-10.6767
,”	-10.6769
▁laundry	-10.6803
▁barking	-10.6805
▁thinking	-10.681
▁already	-10.6838
▁spirit	-10.6838
▁Pippin	-10.6838
▁Everywhere	-10.6838
Spot	-10.6848
▁anchor	-10.6861
▁post	-10.6865
▁frame	-10.6873
▁patch	-10.6885
▁available	-10.6885
▁either	-10.6885
▁Look	-10.6892
▁flour	-10.6896
▁fastest	-10.6911
Bye	-10.6918
▁rhinoceros	-10.692
▁sandbox	-10.6955
▁five	-10.6968
▁ticket	-10.6972
▁peanut	-10.6972
▁picking	-10.6973
▁switch	-10.6977
▁staff	-10.6979
▁sailor	-10.6984
▁hours	-10.6986
▁skirt	-10.699
▁pretending	-10.6991
▁slides	-10.6997
▁grill	-10.7002
▁parent	-10.7008
▁towers	-10.7013
▁bulb	-10.7032
▁cards	-10.7037
▁blackboard	-10.7038
▁allowed	-10.7039
▁means	-10.7041
▁planet	-10.7049
▁grandpa	-10.7062
▁novel	-10.7074
▁coffee	-10.7086
▁safely	-10.709
▁hanging	-10.71
▁melt	-10.7105
▁pilot	-10.7109
▁quit	-10.7118
▁complete	-10.7119
▁Grandpa	-10.7121
▁cardboard	-10.7122
▁dreamed	-10.713
▁maze	-10.7133
▁telephone	-10.7133
▁return	-10.7141
▁vendor	-10.7157
▁repair	-10.7165
▁past	-10.7169
▁Before	-10.717
▁laser	-10.7182
▁silver	-10.7194
▁grapes	-10.721
▁mitten	-10.7213
▁lotion	-10.7232
▁chimney	-10.7242
▁toilet	-10.7242
▁often	-10.7242
;	-10.7254
▁wardrobe	-10.7254
▁napkin	-10.7261
▁valuable	-10.7291
▁Sunny	-10.7291
▁lie	-10.7297
▁giggled	-10.7304
▁swinging	-10.731
▁spilled	-10.7316
▁taller	-10.732
▁otter	-10.7327
▁alarm	-10.7327
▁imagine	-10.7338
▁whip	-10.7352
▁mummy	-10.7352
▁mark	-10.7355
▁steps	-10.736
▁penguin	-10.7372
▁falling	-10.7376
▁fireplace	-10.7376
▁hall	-10.7389
▁itch	-10.7394
▁screw	-10.7397
▁ashtray	-10.7401
▁oak	-10.7413
▁discovered	-10.7414
▁ornament	-10.7434
▁stared	-10.7435
▁juicy	-10.7438
▁burn	-10.7447
▁week	-10.7456
▁agree	-10.7458
▁creek	-10.7463
▁trash	-10.7463
▁size	-10.7472
▁spoke	-10.7475
▁razor	-10.7488
▁oats	-10.7507
▁shrink	-10.751
▁Teddy	-10.7525
▁offered	-10.7527
▁fisherman	-10.7537
▁teaspoon	-10.7537
▁pressed	-10.7538
▁calendar	-10.755
▁temple	-10.755
▁Mandy	-10.755
▁bathe	-10.7555
▁hive	-10.7562
▁cane	-10.757
▁page	-10.7572
▁nature	-10.7575
i	-10.758
▁S	-10.7583
▁cherries	-10.7587
▁happier	-10.7587
▁stretched	-10.759
▁Giv	-10.7595
▁rake	-10.7599
▁dishwasher	-10.76
▁fuel	-10.76
▁stumbled	-10.76
▁newspaper	-10.7613
▁cabinet	-10.7638
▁freezer	-10.7638
▁practice	-10.7649
▁fog	-10.765
▁musician	-10.7651
▁gasped	-10.7663
▁file	-10.7673
▁trail	-10.7688
▁museum	-10.7688
▁hate	-10.7691
Wait	-10.77
▁sandwiches	-10.7702
▁gather	-10.771
▁tuna	-10.7714
There	-10.772
▁hurry	-10.7727
▁popped	-10.7727
▁knows	-10.7736
▁poem	-10.7738
▁holds	-10.7756
▁mustache	-10.7765
▁tutor	-10.7765
▁shaking	-10.7778
▁tornado	-10.7778
▁fingers	-10.7782
▁squeeze	-10.7802
▁jokes	-10.7836
▁opens	-10.7856
▁check	-10.7862
▁perfume	-10.7881
▁short	-10.7892
▁pistol	-10.7893
▁weigh	-10.7895
▁telling	-10.7904
▁microscope	-10.7906
▁battery	-10.7907
▁television	-10.7919
▁climbing	-10.7931
▁magazine	-10.7932
▁gear	-10.7932
▁chose	-10.7932
▁listening	-10.7932
▁advice	-10.7945
▁palace	-10.7945
▁vehicle	-10.7958
▁beef	-10.7986
▁cows	-10.7994
▁restaurant	-10.7998
▁against	-10.8019
▁lend	-10.8022
▁resist	-10.8035
▁bookshelf	-10.8037
▁son	-10.8038
▁tightly	-10.8041
▁cell	-10.805
▁theater	-10.805
▁improve	-10.8075
▁drain	-10.8076
▁hedge	-10.8076
▁mule	-10.8076
▁notice	-10.8078
▁helper	-10.8083
▁rot	-10.8104
▁roared	-10.8107
▁festival	-10.8129
▁waste	-10.8149
▁separate	-10.8154
▁load	-10.8165
th	-10.8167
▁quick	-10.8168
▁shampoo	-10.8182
▁sweetie	-10.8185
▁Tweet	-10.8195
▁boots	-10.82
▁papers	-10.8205
▁cabin	-10.8209
▁giraffe	-10.821
▁buckle	-10.8221
▁opera	-10.8222
▁airport	-10.8222
▁refused	-10.8223
▁neat	-10.8248
▁Dolly	-10.8249
▁Red	-10.825
▁homes	-10.825
▁soil	-10.825
▁dictionary	-10.8263
▁axe	-10.8263
▁stops	-10.8281
▁blouse	-10.829
▁rubber	-10.829
▁lawn	-10.829
▁hut	-10.8292
▁attach	-10.8299
▁model	-10.8303
▁stickers	-10.8306
▁circles	-10.831
▁peace	-10.8316
▁rail	-10.8317
▁stirred	-10.8317
▁sparkly	-10.8317
▁subway	-10.833
▁anyway	-10.833
▁jewelry	-10.833
▁gym	-10.8344
▁billboard	-10.8371
▁crib	-10.8371
▁peeked	-10.8372
▁rescue	-10.8383
▁poked	-10.8386
▁swamp	-10.839
▁blueberries	-10.8398
aid	-10.8407
▁junk	-10.8411
▁letters	-10.8417
▁butterflies	-10.8426
Ow	-10.8438
Ouch	-10.8439
▁belongs	-10.8451
▁blinked	-10.8453
▁point	-10.8478
▁reef	-10.848
▁doesn	-10.8485
▁unpack	-10.849
▁reverse	-10.8492
▁hung	-10.8493
▁shelter	-10.8494
▁Are	-10.851
▁holes	-10.8529
▁quiz	-10.8535
▁Here	-10.8544
▁breakfast	-10.8563
▁distance	-10.8563
▁pleased	-10.8565
▁wipe	-10.8565
▁bikes	-10.857
▁display	-10.8575
▁thermometer	-10.8576
▁examine	-10.859
▁cobweb	-10.8594
▁boys	-10.8605
end	-10.8618
▁rules	-10.8635
▁swung	-10.8646
▁lightning	-10.866
▁summer	-10.8674
ray	-10.8676
▁trade	-10.8687
▁chamber	-10.8702
▁names	-10.871
▁cliff	-10.873
▁Freddy	-10.873
▁peek	-10.874
▁happens	-10.8744
▁lumber	-10.8744
▁serve	-10.8757
▁porch	-10.8758
▁yell	-10.8773
▁sounded	-10.8775
▁snap	-10.8777
▁explain	-10.8787
▁seem	-10.8792
▁growing	-10.8803
▁jumps	-10.8808
▁spark	-10.8833
▁Lilly	-10.8843
▁invite	-10.8847
k	-10.8863
▁Lola	-10.8872
▁classroom	-10.8872
▁steam	-10.8872
▁sofa	-10.8872
▁bookcase	-10.8886
▁Bill	-10.8914
▁structure	-10.8929
▁riding	-10.893
▁bury	-10.8941
▁respectful	-10.8946
▁mist	-10.8957
▁tease	-10.8972
c	-10.8972
▁lawyer	-10.8972
b	-10.8973
▁license	-10.9001
▁accidentally	-10.9001
▁knob	-10.9016
▁reward	-10.9026
They	-10.9033
▁painter	-10.9037
▁problems	-10.9039
▁shower	-10.904
▁tub	-10.9041
▁stable	-10.9045
▁pages	-10.9048
▁pinch	-10.9055
▁Pandy	-10.9059
▁Bow	-10.9059
▁herb	-10.9063
of	-10.9072
▁Ellie	-10.9074
▁missing	-10.9093
▁T	-10.9101
▁camp	-10.9115
▁ostrich	-10.9117
▁anywhere	-10.9118
▁caring	-10.9121
▁exam	-10.9132
▁ceiling	-10.9132
▁leaving	-10.9132
▁weather	-10.9132
▁frowned	-10.9134
▁extra	-10.9147
▁oasis	-10.9147
▁veterinarian	-10.9147
▁knight	-10.9155
▁Bird	-10.9161
▁excitedly	-10.9164
▁task	-10.9184
▁dancer	-10.9188
▁ahead	-10.9191
▁scatter	-10.9202
▁gas	-10.9207
▁Buzzy	-10.9207
▁remove	-10.9219
▁Speedy	-10.9221
▁comfort	-10.9231
▁passport	-10.9244
▁dreaming	-10.9247
▁admire	-10.9249
▁furniture	-10.925
▁Where	-10.9253
l	-10.9267
▁Lee	-10.928
▁beep	-10.9287
▁grape	-10.9289
▁accept	-10.9293
▁pray	-10.9305
▁chance	-10.931
g	-10.9315
▁Johnny	-10.9325
▁object	-10.9334
▁wine	-10.9347
ie	-10.9349
▁argue	-10.9353
He	-10.9356
▁meeting	-10.9361
▁firework	-10.9364
▁mistakes	-10.938
▁spoil	-10.941
▁evening	-10.9414
▁warned	-10.9416
▁monkeys	-10.9426
▁knock	-10.9435
▁carrying	-10.9437
or	-10.9438
▁shouts	-10.9449
▁birdcage	-10.946
▁leaned	-10.9461
▁goal	-10.9471
▁Eventually	-10.9475
▁above	-10.9475
▁refrigerator	-10.9475
▁lab	-10.9475
▁Binky	-10.9505
▁lid	-10.9521
▁winter	-10.9521
▁zoomed	-10.9525
old	-10.9525
▁disappear	-10.9532
▁disturb	-10.9532
▁restore	-10.9534
▁Jazz	-10.9536
▁panda	-10.9577
▁symbol	-10.9593
▁wander	-10.9594
▁squirrels	-10.9627
▁chasing	-10.9628
▁pair	-10.9628
▁older	-10.9646
▁ribbon	-10.9655
▁harbor	-10.9659
▁saving	-10.9659
▁socks	-10.9688
▁raise	-10.9688
▁jail	-10.9705
▁brightly	-10.9715
▁sight	-10.973
thank	-10.9735
▁prevent	-10.9736
▁brighter	-10.9742
▁succeed	-10.975
▁apron	-10.9764
▁weapon	-10.9783
▁proudly	-10.9788
▁forgave	-10.9846
▁sunset	-10.9846
▁puddles	-10.9855
▁leak	-10.9859
▁favourite	-10.9861
▁luggage	-10.9861
▁bent	-10.9862
▁searching	-10.9866
Your	-10.9869
▁float	-10.987
▁war	-10.9876
▁Big	-10.9877
▁imagined	-10.9879
▁sadly	-10.9908
▁matches	-10.9909
▁Zoomy	-10.991
▁rushed	-10.991
▁sticker	-10.9915
▁fixing	-10.9919
▁frogs	-10.9929
▁pattern	-10.9939
▁Bo	-10.9959
▁trains	-10.9971
▁Dave	-10.9987
▁suggested	-10.9989
▁ranch	-10.9996
▁hoping	-10.9996
al	-11.0002
▁ignore	-11.002
▁starts	-11.0032
▁berry	-11.0036
▁handed	-11.0049
▁Paul	-11.0052
▁valley	-11.0052
▁Kiki	-11.0068
▁Mike	-11.0116
▁lions	-11.0118
▁helps	-11.0118
ve	-11.0127
▁prepare	-11.0132
▁George	-11.0133
▁grabs	-11.0135
▁thanks	-11.0144
▁chairs	-11.0149
▁Olive	-11.0165
▁stadium	-11.0165
▁unite	-11.018
▁spade	-11.0182
▁language	-11.0197
▁mineral	-11.0198
▁sent	-11.0198
▁gain	-11.0212
▁e	-11.0264
▁port	-11.028
▁brick	-11.028
▁points	-11.0292
▁Hoppy	-11.0296
▁E	-11.0308
▁enter	-11.0311
▁Danny	-11.0313
▁supply	-11.0329
Yay	-11.0329
▁holiday	-11.0346
▁mall	-11.0346
▁sneezed	-11.0364
▁replace	-11.0378
▁strip	-11.0379
▁delighted	-11.038
▁plastic	-11.0395
▁root	-11.0397
▁cared	-11.0404
▁Under	-11.0412
▁admired	-11.0414
▁cheer	-11.0421
▁fought	-11.0429
▁pushing	-11.0441
▁law	-11.0445
▁Snowy	-11.0446
▁Bee	-11.0455
▁sneak	-11.0461
▁sniffed	-11.0463
▁lives	-11.0468
▁Sophie	-11.0479
▁colourful	-11.0479
w	-11.0488
Did	-11.0494
▁infant	-11.0496
▁planes	-11.0503
▁surf	-11.0503
▁menu	-11.0513
▁complain	-11.0525
▁mystery	-11.0546
▁ended	-11.0563
▁panic	-11.0563
▁sunrise	-11.058
▁surrender	-11.0595
▁slippery	-11.0614
▁pushes	-11.0615
▁destroy	-11.0627
in	-11.0627
▁rained	-11.0642
▁reminded	-11.065
▁alive	-11.0682
▁dear	-11.0685
▁Or	-11.0688
▁shone	-11.0699
▁Carl	-11.0706
▁keeping	-11.071
en	-11.0718
▁fear	-11.072
One	-11.0733
▁End	-11.0734
▁Joey	-11.0741
▁repeat	-11.0747
▁score	-11.0749
▁splashing	-11.076
▁x	-11.0769
▁plates	-11.08
▁windows	-11.0816
▁sudden	-11.0837
▁clapping	-11.0838
▁castles	-11.0841
▁Bubbles	-11.0855
Yuck	-11.0873
▁shivering	-11.0874
▁prune	-11.0877
▁thumb	-11.0942
▁Ted	-11.0944
▁shoulder	-11.096
▁raining	-11.096
▁nation	-11.0977
▁pulls	-11.0978
▁giggle	-11.0981
▁copper	-11.0995
▁chickens	-11.1003
▁trusted	-11.1017
▁provide	-11.1029
▁Alex	-11.103
▁mechanic	-11.1048
▁surprises	-11.105
▁throwing	-11.106
▁laughter	-11.1067
▁shiver	-11.108
▁observe	-11.1082
▁uniform	-11.1089
▁unhappy	-11.1119
▁softly	-11.1136
▁weep	-11.1137
▁somewhere	-11.1138
▁dishes	-11.1138
▁sticky	-11.1155
▁human	-11.1161
▁cartoon	-11.1161
▁delay	-11.1189
Ready	-11.119
▁fresh	-11.1191
ar	-11.1203
▁starting	-11.1208
▁flies	-11.1209
▁sprayed	-11.1214
▁smells	-11.1221
Mia	-11.1244
▁steel	-11.1263
▁Would	-11.1264
▁Annie	-11.1282
▁greedy	-11.13
▁danger	-11.1318
▁meowed	-11.1337
Anna	-11.1353
▁Gigi	-11.1354
▁Henry	-11.1373
▁paid	-11.1373
▁hurricane	-11.1391
▁yield	-11.1408
▁freeze	-11.1428
▁wreck	-11.1446
▁believed	-11.1454
▁event	-11.146
▁universe	-11.1465
▁crossed	-11.147
▁sparkled	-11.1484
▁Shar	-11.1495
▁barks	-11.1502
▁shrugged	-11.152
▁See	-11.1523
▁Finn	-11.1535
▁player	-11.1553
▁flapped	-11.1558
▁discover	-11.159
▁dare	-11.1613
▁squeezed	-11.1616
▁content	-11.1633
▁energy	-11.1633
▁strength	-11.1652
▁success	-11.1689
▁delight	-11.1696
▁rush	-11.1704
it	-11.1708
▁network	-11.1708
▁badly	-11.1733
▁Pat	-11.1737
▁shopkeeper	-11.1746
▁D	-11.1747
▁expect	-11.1761
▁tide	-11.1765
▁placed	-11.1781
▁remain	-11.1783
▁Lucky	-11.1804
▁shakes	-11.1806
▁parts	-11.1818
▁row	-11.1832
▁sweetheart	-11.1842
▁country	-11.1862
▁Grace	-11.188
▁beans	-11.1889
▁vacation	-11.19
▁slip	-11.1911
▁exercise	-11.1919
▁strawberries	-11.1919
▁label	-11.1931
▁myself	-11.1938
▁tracks	-11.1939
▁nobody	-11.194
▁prayed	-11.1941
▁Charlie	-11.1997
▁flood	-11.1997
▁eaten	-11.2004
▁doors	-11.2008
▁safari	-11.2016
▁frown	-11.2044
▁claws	-11.2047
▁earth	-11.2056
▁yawned	-11.2057
▁pirates	-11.2059
▁bend	-11.2067
▁sandcastle	-11.2075
▁yawn	-11.2091
▁blueberry	-11.2095
▁heat	-11.2105
▁history	-11.2115
▁upstairs	-11.2115
▁Elly	-11.2115
▁breaks	-11.2125
▁cape	-11.2128
▁Fox	-11.2133
▁between	-11.2154
h	-11.2167
▁minute	-11.2168
▁jogged	-11.2174
▁snail	-11.2174
▁settle	-11.2192
▁imagination	-11.2194
▁impressed	-11.2194
▁ignored	-11.2196
▁palm	-11.2214
▁massage	-11.2228
▁kinds	-11.2252
▁brain	-11.2254
▁equipment	-11.2254
▁spots	-11.2265
▁Help	-11.2274
▁afternoon	-11.2274
▁given	-11.2291
ness	-11.23
ach	-11.2321
▁drops	-11.2334
▁rhythm	-11.2334
▁checked	-11.2337
▁second	-11.2349
▁horses	-11.2357
▁crash	-11.237
▁sir	-11.2374
▁vroom	-11.2375
▁soak	-11.2395
▁easily	-11.2395
▁shouting	-11.2399
▁C	-11.2406
▁coats	-11.2451
▁Sandy	-11.2456
▁Tilly	-11.2456
▁ash	-11.2468
▁increase	-11.2475
▁lemonade	-11.2476
▁acorns	-11.2486
▁navy	-11.2497
▁stomach	-11.2497
▁university	-11.2497
▁bumped	-11.2498
▁tremble	-11.2516
▁cherry	-11.2517
▁offer	-11.2547
▁pigs	-11.255
▁shovel	-11.2555
▁insisted	-11.2559
▁tip	-11.2579
▁pitch	-11.2603
Lucy	-11.2619
▁courage	-11.2621
▁leather	-11.2621
▁remind	-11.2637
▁James	-11.2642
▁poison	-11.2642
▁art	-11.2643
▁bouncing	-11.2662
▁racing	-11.2662
▁writing	-11.2662
▁burned	-11.2665
▁Maria	-11.2683
▁mice	-11.2683
▁punish	-11.2702
▁Mittens	-11.2704
▁regret	-11.2707
▁Dog	-11.2708
▁blowing	-11.2709
▁beauty	-11.2746
▁discuss	-11.2763
▁Bounce	-11.2788
▁choice	-11.2807
▁Penny	-11.2809
▁exclaimed	-11.2809
▁stair	-11.2829
▁scratch	-11.2869
▁explored	-11.287
▁tug	-11.2873
▁Squeaky	-11.2873
▁prunes	-11.2889
▁poppy	-11.2894
▁warning	-11.2895
▁entered	-11.2897
▁heads	-11.2913
est	-11.2917
▁tour	-11.2941
▁calls	-11.2945
▁earthquake	-11.2959
▁growled	-11.296
▁below	-11.2962
▁throws	-11.2978
special	-11.2979
▁waving	-11.298
▁baking	-11.298
▁Froggy	-11.298
▁Pip	-11.298
▁Coco	-11.3023
▁teaching	-11.3038
▁feelings	-11.305
▁daisy	-11.3067
▁suffer	-11.3084
▁release	-11.3087
▁folded	-11.3092
▁dresses	-11.3093
▁struggle	-11.3109
▁underground	-11.311
▁snuggled	-11.311
▁Owl	-11.3126
▁introduce	-11.3131
▁Wiggly	-11.3132
▁strike	-11.3132
la	-11.3137
▁marbles	-11.3139
▁learnt	-11.3141
ter	-11.3148
▁mailman	-11.3154
Dad	-11.3174
year	-11.3174
▁apart	-11.3176
▁ha	-11.3184
▁traffic	-11.3198
▁recognize	-11.3218
▁permit	-11.322
▁superhero	-11.3242
▁include	-11.3242
▁Sunday	-11.3242
▁grocery	-11.3242
▁peanuts	-11.3254
▁image	-11.3265
▁floated	-11.3289
▁twisted	-11.3292
▁pastel	-11.331
▁Who	-11.3313
▁Bluey	-11.3337
▁Hav	-11.3345
▁Wednesday	-11.3353
▁Zara	-11.3353
ur	-11.3372
▁chores	-11.3377
li	-11.3384
▁following	-11.3391
▁closely	-11.3409
▁winning	-11.342
▁Baby	-11.3443
▁lemons	-11.3444
▁worse	-11.3488
▁Kate	-11.3488
▁ingredients	-11.3491
▁shined	-11.3492
▁pulling	-11.3504
Welcome	-11.3509
▁urge	-11.3532
▁sold	-11.3533
▁zigzag	-11.3533
▁hopes	-11.3534
▁Finny	-11.3535
▁solved	-11.3538
▁hills	-11.3541
▁whistled	-11.3542
▁gifts	-11.3546
▁Harry	-11.3556
▁quietly	-11.3564
▁planned	-11.3579
▁licks	-11.3584
▁chewed	-11.3585
▁buried	-11.3602
▁rabbits	-11.3615
▁hearts	-11.3623
▁wags	-11.3636
el	-11.3647
▁style	-11.3648
▁Liz	-11.367
▁twisty	-11.3674
▁breathe	-11.3683
▁elephants	-11.3689
ch	-11.3691
▁slap	-11.3694
▁vanished	-11.3696
▁memory	-11.3717
▁yucky	-11.3717
▁kisses	-11.3718
▁heel	-11.3731
▁price	-11.374
▁Papa	-11.374
▁Ruby	-11.374
And	-11.3745
▁recommend	-11.3762
▁velvet	-11.3764
▁attention	-11.3787
▁hurting	-11.3798
▁candles	-11.3817
▁dressed	-11.3824
▁pedal	-11.3837
▁mama	-11.3857
▁prints	-11.387
looking	-11.3879
▁zipped	-11.3881
▁blood	-11.3904
▁Pinky	-11.3904
▁oh	-11.3905
▁bricks	-11.3927
▁vanish	-11.395
▁backpack	-11.3957
▁olive	-11.3957
▁quite	-11.3958
▁bouncy	-11.3975
▁First	-11.3976
Woof	-11.4001
▁sport	-11.4005
▁wisdom	-11.4023
▁digging	-11.4047
▁deeper	-11.4052
▁bother	-11.4067
▁jazz	-11.4071
on	-11.4088
▁Boo	-11.4097
▁paused	-11.412
▁captain	-11.4143
▁fallen	-11.4145
▁planted	-11.4161
▁wagging	-11.4167
▁Millie	-11.4192
▁Dan	-11.4206
▁lecture	-11.4289
▁worth	-11.4289
▁God	-11.4294
ra	-11.4297
▁fashion	-11.4314
▁manage	-11.4315
▁pinched	-11.4317
▁creatures	-11.4317
▁washing	-11.4327
▁further	-11.4339
▁accepted	-11.4342
▁B	-11.4348
▁gazed	-11.4364
▁nightmare	-11.4372
▁seeing	-11.4384
▁golden	-11.4389
Yum	-11.439
▁printer	-11.4391
▁fireworks	-11.4397
▁seats	-11.4428
S	-11.4428
▁signs	-11.4442
▁winner	-11.4447
▁worms	-11.4447
▁rooms	-11.4457
▁pillows	-11.4457
Will	-11.4461
▁marriage	-11.4463
▁warn	-11.4484
▁Tuesday	-11.4488
▁exit	-11.4488
▁blink	-11.4509
▁dur	-11.4513
▁catching	-11.452
▁puzzles	-11.4531
▁press	-11.4535
▁difference	-11.4538
▁invitation	-11.4547
▁sip	-11.4563
▁sailing	-11.4578
▁receive	-11.4587
▁counter	-11.4593
▁landscape	-11.4614
▁scattered	-11.4617
▁stuffed	-11.4618
ce	-11.4619
▁P	-11.4624
▁boss	-11.4639
▁dried	-11.4639
▁eagerly	-11.4642
▁oxygen	-11.4664
▁scolded	-11.4665
▁cutting	-11.467
▁moves	-11.4673
▁weight	-11.4686
▁shot	-11.469
▁–	-11.469
▁Everything	-11.469
▁reache	-11.47
▁G	-11.4707
▁operation	-11.4715
ri	-11.4736
▁embarrass	-11.4739
▁straight	-11.4741
▁raised	-11.4743
▁tomatoes	-11.4768
▁web	-11.4783
▁sorts	-11.4793
▁sizes	-11.4826
▁luck	-11.4843
▁Tony	-11.4844
is	-11.4854
▁Rocky	-11.4871
▁muddy	-11.4871
▁cheek	-11.4883
▁whisper	-11.4931
▁lip	-11.4936
▁waist	-11.4949
▁accident	-11.4962
▁married	-11.4975
▁collected	-11.498
▁spoons	-11.4985
▁celebrated	-11.5005
and	-11.5011
▁visited	-11.5021
▁kitty	-11.5028
▁nowhere	-11.5028
Sara	-11.5052
▁Clara	-11.5054
Ok	-11.5067
▁Rosie	-11.5081
▁Fifi	-11.5081
▁guessed	-11.5086
▁encourage	-11.5106
▁Maggie	-11.5107
▁memories	-11.5134
▁torn	-11.5134
▁isn	-11.5152
▁watered	-11.5154
Surprise	-11.5161
▁Wally	-11.5161
Because	-11.5186
▁easier	-11.5187
▁pears	-11.521
▁sorting	-11.5248
▁Tuna	-11.5268
▁wandered	-11.5272
▁dared	-11.5297
▁tuck	-11.5323
▁measured	-11.5328
ro	-11.534
▁bones	-11.5354
▁disagree	-11.5373
▁petals	-11.5377
▁treasures	-11.5383
▁kicking	-11.5387
Ha	-11.5387
▁brings	-11.539
ver	-11.5393
▁season	-11.5394
▁bears	-11.5396
▁shouldn	-11.54
▁stitch	-11.5404
▁simple	-11.5404
▁sits	-11.5411
▁Suzy	-11.5432
▁marching	-11.544
▁someday	-11.546
▁tongue	-11.546
▁snapped	-11.546
Always	-11.546
▁created	-11.5464
▁acted	-11.5466
▁gloves	-11.547
▁lean	-11.5483
▁ruin	-11.5485
▁soccer	-11.5487
▁Chicky	-11.5487
▁bye	-11.549
P	-11.5541
an	-11.5557
ty	-11.5557
▁Moral	-11.557
▁destroyed	-11.5573
▁flap	-11.5588
▁Hop	-11.5595
▁Dino	-11.5598
▁baked	-11.5605
▁finds	-11.5624
▁printed	-11.5635
▁forgotten	-11.5655
ry	-11.5658
▁sliding	-11.5661
▁hadn	-11.5666
▁skills	-11.5679
▁curl	-11.5682
ers	-11.5691
▁jogging	-11.5711
▁emergency	-11.5711
▁unlocked	-11.5716
▁reveal	-11.5737
▁zero	-11.5739
▁rang	-11.5759
Amy	-11.5766
▁punished	-11.577
▁west	-11.5791
▁Uncle	-11.5796
▁attached	-11.58
▁skipping	-11.5825
▁King	-11.5826
▁floating	-11.5829
▁grant	-11.588
▁appear	-11.5967
▁oranges	-11.5969
▁rested	-11.5971
▁welcomed	-11.5985
▁trapped	-11.5998
▁watches	-11.6005
▁potatoes	-11.6057
ose	-11.6074
▁fetch	-11.6086
▁lick	-11.6107
▁bites	-11.6111
▁pets	-11.6113
▁Someone	-11.6115
▁urged	-11.6117
Meow	-11.6119
▁sigh	-11.6141
▁un	-11.6144
▁headed	-11.6164
▁luxury	-11.6174
▁setting	-11.618
ups	-11.619
▁hits	-11.619
▁batter	-11.6233
▁twirled	-11.6235
▁begged	-11.6267
▁relaxed	-11.6269
▁olives	-11.6286
▁kingdom	-11.6293
▁allow	-11.6314
▁immediately	-11.6323
▁Milly	-11.6323
▁stamps	-11.6324
▁officer	-11.6325
▁remained	-11.6326
▁pies	-11.6331
▁tickle	-11.6352
▁whistling	-11.6353
▁Follow	-11.6354
▁jewels	-11.6373
Goodbye	-11.6383
▁flat	-11.6384
▁received	-11.6385
▁applaud	-11.641
▁Mo	-11.6411
▁Star	-11.6414
▁laid	-11.6414
▁toes	-11.6414
▁wiggle	-11.6443
▁fed	-11.6445
▁disagreed	-11.6446
▁perfectly	-11.6454
Not	-11.6457
▁understanding	-11.6474
▁six	-11.6475
▁victory	-11.6475
▁none	-11.6479
▁bowed	-11.649
C	-11.6491
▁drinking	-11.65
▁Smith	-11.6505
▁sorted	-11.6512
▁warmth	-11.6513
▁costumes	-11.6517
▁soldiers	-11.6525
▁breaking	-11.6531
▁bang	-11.6534
▁breeze	-11.6536
▁mentioned	-11.6537
▁weeping	-11.654
am	-11.6551
▁experience	-11.6566
▁scratched	-11.657
il	-11.6579
▁climbs	-11.6582
▁roots	-11.6627
▁shed	-11.6627
mething	-11.6658
▁Dr	-11.666
▁waffles	-11.6669
▁twin	-11.6688
▁melted	-11.6696
▁highest	-11.6698
▁ripped	-11.6722
▁collection	-11.6722
▁spike	-11.6751
▁Sky	-11.6754
▁mister	-11.6786
Boo	-11.6793
▁lips	-11.6801
▁Toto	-11.688
▁pearl	-11.688
▁presents	-11.6885
▁escaped	-11.6886
▁tonight	-11.6912
▁screams	-11.6926
▁encouraged	-11.6945
▁kneeled	-11.6945
▁marks	-11.6955
▁ladybug	-11.6976
▁Pepper	-11.6976
▁ago	-11.6996
▁nails	-11.7002
▁since	-11.7038
▁contest	-11.704
▁Rob	-11.704
▁studied	-11.7073
▁settled	-11.7075
▁patterns	-11.7077
▁Beep	-11.7077
▁bump	-11.7099
▁suppose	-11.7105
▁teasing	-11.7105
Next	-11.7136
▁alright	-11.7138
▁sidewalk	-11.7138
▁peaches	-11.7138
To	-11.7143
▁blankets	-11.7155
▁request	-11.7168
▁cr	-11.7199
▁David	-11.7203
▁wink	-11.7228
▁permission	-11.7236
▁muscles	-11.7264
▁Lizzy	-11.7269
Little	-11.7301
▁hurried	-11.7302
▁stirring	-11.7302
▁vegetable	-11.7336
▁succeeded	-11.7339
▁fishing	-11.7341
▁studying	-11.7343
▁selling	-11.7344
ic	-11.7352
uring	-11.7376
▁shadows	-11.7377
▁voices	-11.7381
▁drinks	-11.7386
▁safety	-11.7408
▁colours	-11.7416
▁ours	-11.7416
▁playtime	-11.7417
▁east	-11.7436
▁texture	-11.7436
▁mouths	-11.7457
ion	-11.7477
▁mixing	-11.7486
▁silence	-11.7503
▁wizard	-11.7503
▁strangers	-11.752
▁bravely	-11.7535
Mr	-11.7536
▁F	-11.7539
▁area	-11.7544
boo	-11.7562
▁loose	-11.7571
▁ruler	-11.7571
▁approached	-11.7571
▁apologized	-11.7572
▁However	-11.7573
▁leader	-11.7575
▁resting	-11.7581
hello	-11.7638
▁importance	-11.7674
Really	-11.7675
▁shooting	-11.7683
▁Steve	-11.7708
▁praised	-11.7708
▁stealing	-11.7716
hind	-11.7719
▁decorations	-11.7722
▁lands	-11.7738
▁spaceship	-11.7743
▁herbs	-11.7761
▁ringing	-11.7794
▁matched	-11.7824
▁motion	-11.7847
▁lily	-11.7847
▁pop	-11.7852
▁boom	-11.7854
▁chewing	-11.7858
▁cones	-11.7869
▁shock	-11.7881
▁struck	-11.7882
▁slapped	-11.7883
▁hi	-11.7892
▁sisters	-11.7905
M	-11.7917
▁Katie	-11.7918
▁crashed	-11.7921
▁Abigail	-11.7953
▁babies	-11.7953
▁revealed	-11.7955
▁served	-11.7956
▁lines	-11.797
▁bridges	-11.7976
z	-11.7987
▁trembling	-11.7988
▁broom	-11.7988
▁May	-11.7989
▁Happy	-11.799
▁known	-11.8023
▁investigate	-11.8024
▁men	-11.8054
please	-11.8058
▁amazement	-11.806
▁paints	-11.806
▁answers	-11.8062
Happy	-11.8094
▁Jo	-11.8102
▁p	-11.8127
▁happiest	-11.8132
▁pup	-11.8132
▁recorded	-11.8138
▁soared	-11.8139
Would	-11.8166
▁Snow	-11.8203
▁measuring	-11.824
▁Zoe	-11.8276
▁cuddled	-11.8278
lo	-11.8292
▁c	-11.8294
▁fields	-11.8313
▁scaring	-11.8314
▁napping	-11.8314
▁sneaky	-11.8315
▁melting	-11.832
▁Frog	-11.835
▁ordered	-11.8357
▁glowed	-11.8361
▁Out	-11.8387
▁sparkle	-11.8395
▁boo	-11.8397
▁Good	-11.8401
▁wonders	-11.8407
▁ideas	-11.8418
oo	-11.8439
▁nicer	-11.8458
When	-11.846
▁sprinkles	-11.8461
hi	-11.849
▁appreciate	-11.8497
▁comfy	-11.8499
▁families	-11.8499
▁poking	-11.8499
▁anytime	-11.8499
▁mittens	-11.8514
▁tickets	-11.8519
▁wooden	-11.8537
im	-11.854
▁disturbed	-11.8541
▁burning	-11.8543
▁beds	-11.8561
▁muffins	-11.8573
▁vet	-11.8574
Or	-11.8576
▁weighed	-11.8579
Bob	-11.861
▁agreement	-11.8611
▁Slowly	-11.8611
▁keys	-11.8614
ng	-11.8617
▁Rabbit	-11.8649
ck	-11.8658
out	-11.8675
▁bleeding	-11.8688
▁lung	-11.8698
▁piles	-11.87
▁demand	-11.8721
▁brushes	-11.8727
▁acting	-11.8737
Kitty	-11.8762
▁Zigzag	-11.8764
▁downstairs	-11.8764
▁frozen	-11.8764
▁b	-11.8767
▁turning	-11.8798
▁Rachel	-11.8802
▁beamed	-11.8802
▁shopping	-11.8803
▁tallest	-11.8806
▁youth	-11.8837
▁pause	-11.8839
▁twigs	-11.884
▁tricked	-11.885
▁giraffes	-11.8876
▁surround	-11.888
▁balancing	-11.888
▁Unfortunately	-11.888
▁purred	-11.888
less	-11.8884
▁crawling	-11.8888
▁precious	-11.8918
▁sparkling	-11.8919
▁soaked	-11.8922
▁hated	-11.8925
▁bringing	-11.8947
▁threat	-11.8958
Mmm	-11.8958
▁prepared	-11.8961
▁Hope	-11.8962
▁awe	-11.8983
▁trips	-11.8986
▁arrive	-11.8995
▁gained	-11.9001
▁grinned	-11.9036
She	-11.9042
ling	-11.9046
ite	-11.9069
▁future	-11.9115
▁recognized	-11.9118
▁re	-11.9154
▁stripes	-11.9156
▁mat	-11.9158
▁behaved	-11.9161
▁result	-11.9169
▁touching	-11.9182
▁gaze	-11.9194
▁Moo	-11.9196
▁Abby	-11.9196
▁brushed	-11.9208
▁bunnies	-11.9235
▁hugging	-11.9235
▁Robby	-11.9235
▁zookeeper	-11.9235
▁cartoons	-11.9262
▁knelt	-11.9276
▁wanting	-11.9276
▁sting	-11.9277
▁collecting	-11.9285
▁slice	-11.9291
▁Joy	-11.9317
▁meow	-11.9334
x	-11.9338
▁eight	-11.9357
▁scooped	-11.9358
▁demanded	-11.9359
▁poems	-11.9362
▁peer	-11.9394
▁firemen	-11.9399
▁Stop	-11.9408
▁excite	-11.9437
▁sore	-11.9449
▁zooming	-11.9454
▁neighbour	-11.9455
▁cakes	-11.9461
▁opinion	-11.9496
un	-11.9499
▁remembers	-11.9507
▁owned	-11.9517
▁neighborhood	-11.9521
▁spraying	-11.9534
▁staying	-11.9561
Remember	-11.9561
▁Velvet	-11.9563
▁inch	-11.9595
Hav	-11.9599
▁By	-11.9603
▁Frank	-11.9604
▁Olly	-11.9604
▁Ray	-11.9605
▁spit	-11.9622
▁woof	-11.9646
▁Gogo	-11.9646
▁sings	-11.9649
▁An	-11.9652
▁hissed	-11.9659
▁snowballs	-11.9669
▁quack	-11.9684
▁challenge	-11.9687
▁possible	-11.9688
▁seesaw	-11.969
▁circus	-11.9692
▁yelling	-11.9695
▁works	-11.9698
▁snowball	-11.9707
▁beard	-11.971
▁strings	-11.9715
ake	-11.9722
▁tastes	-11.9727
▁Julie	-11.973
▁gust	-11.973
▁frosting	-11.973
▁Water	-11.973
go	-11.9732
▁dinosaurs	-11.9735
ad	-11.9738
▁belly	-11.9742
▁matching	-11.9747
▁worker	-11.977
ept	-11.9772
▁For	-11.9773
▁rocking	-11.9774
▁lied	-11.9777
▁bloomed	-11.9781
▁pebbles	-11.9783
▁oat	-11.9792
▁seems	-11.9807
▁sew	-11.9811
▁Zero	-11.9815
▁bat	-11.9823
▁rocked	-11.9828
▁kneel	-11.9855
Yummy	-11.9857
▁yesterday	-11.9858
▁grey	-11.9858
▁moments	-11.9867
▁curiosity	-11.9901
▁struggled	-11.9904
▁onwards	-11.9925
▁pedals	-11.9935
▁Stitch	-11.9944
▁Thomas	-11.9944
▁fault	-11.9944
▁tugged	-11.9944
▁crunchy	-11.9944
▁clearing	-11.9959
▁waits	-11.9973
▁Nina	-11.9987
▁beat	-11.9988
▁buzzing	-11.9988
▁doggy	-11.999
▁Day	-12.0031
▁wag	-12.0052
▁safer	-12.0057
▁usual	-12.0061
▁claps	-12.0073
▁pride	-12.0074
▁petted	-12.0075
▁dusty	-12.0078
us	-12.0098
▁eagle	-12.0118
▁rubbing	-12.0118
▁Birdie	-12.0119
▁movies	-12.0121
▁polished	-12.0126
▁chirped	-12.0163
▁argued	-12.0166
▁beside	-12.0174
B	-12.019
▁Watch	-12.0208
▁quarreling	-12.0215
ne	-12.0218
▁stare	-12.0236
▁sweeties	-12.0249
▁Bouncy	-12.0251
▁control	-12.0251
▁organizing	-12.0251
▁dragg	-12.0251
▁realize	-12.0251
▁Did	-12.0255
▁bar	-12.0282
▁slimy	-12.0296
▁Like	-12.0296
▁decorated	-12.0302
▁goals	-12.031
ey	-12.032
▁opening	-12.0322
▁kindly	-12.0323
▁naps	-12.0341
▁noon	-12.0348
ee	-12.035
▁folding	-12.0351
▁wondering	-12.0354
da	-12.0355
▁smallest	-12.037
▁fears	-12.0377
▁Chloe	-12.0386
▁machines	-12.0412
ies	-12.0413
▁buckets	-12.0415
Mama	-12.0429
▁goodnight	-12.0431
▁pockets	-12.0436
id	-12.0439
▁sunlight	-12.0478
▁cracked	-12.0485
▁powers	-12.0493
▁sausages	-12.0522
▁roads	-12.0547
▁secrets	-12.0557
he	-12.0558
ped	-12.0562
▁completed	-12.0573
▁keeper	-12.0583
▁spill	-12.059
ied	-12.0601
ted	-12.0613
▁Ava	-12.0614
▁Jamie	-12.0614
▁Pippa	-12.0614
▁Because	-12.0616
▁earlier	-12.066
▁Aunt	-12.066
▁policeman	-12.066
▁Splash	-12.066
▁heroes	-12.0662
▁splashes	-12.0663
▁granted	-12.0663
▁horns	-12.0667
▁rides	-12.0674
▁chips	-12.0676
▁mention	-12.0705
Sally	-12.0705
▁apologize	-12.0705
▁loving	-12.0707
▁polishing	-12.0716
▁colour	-12.0732
sh	-12.0738
▁Blink	-12.0752
▁parties	-12.0754
ctually	-12.076
▁L	-12.0762
▁sides	-12.0772
▁Earth	-12.08
▁removed	-12.0805
▁pouring	-12.081
▁Th	-12.0812
▁catches	-12.0813
▁ourselves	-12.0848
▁awake	-12.0848
▁thrilled	-12.0848
▁Keep	-12.0848
▁ribbons	-12.0859
▁steep	-12.0895
▁loaded	-12.0901
▁tasks	-12.0916
▁sparkles	-12.0932
▁staring	-12.0939
▁Hannah	-12.0943
▁prettiest	-12.0943
▁released	-12.0946
▁planets	-12.0969
▁paintings	-12.0982
▁pots	-12.0986
▁continue	-12.099
▁admiring	-12.099
▁tune	-12.099
▁discovery	-12.0993
▁pupil	-12.1021
▁company	-12.1038
▁united	-12.1043
▁rip	-12.1047
▁traveled	-12.1048
▁weeks	-12.1053
▁Everyday	-12.1087
▁struggling	-12.1087
▁diving	-12.1087
▁smiley	-12.109
py	-12.1111
▁wires	-12.1112
▁peppers	-12.1118
▁honk	-12.1131
▁arguing	-12.1135
▁sadness	-12.1136
▁applauded	-12.1138
▁repeated	-12.114
▁sighs	-12.1146
O	-12.1164
▁writes	-12.1166
▁grandmother	-12.1184
as	-12.1185
▁Brownie	-12.1185
▁gathering	-12.1193
▁soaring	-12.1197
▁Jilly	-12.1198
▁protected	-12.12
▁overjoyed	-12.1233
▁responsible	-12.1233
▁Bye	-12.1243
▁items	-12.1261
▁lower	-12.1261
▁pastels	-12.128
▁Green	-12.1281
▁3-	-12.1299
▁roaring	-12.13
▁contain	-12.1328
D	-12.133
Daddy	-12.133
▁unicorn	-12.1332
ping	-12.1365
▁airplane	-12.1382
▁shelves	-12.1382
▁bedtime	-12.1383
▁wiggled	-12.1384
▁healed	-12.139
▁darker	-12.1402
▁cub	-12.1412
▁dragons	-12.1423
▁paddle	-12.143
led	-12.1431
▁radishes	-12.1433
▁neighbors	-12.1434
ful	-12.1445
▁penguins	-12.1448
▁sniff	-12.1462
▁scales	-12.1466
▁refuse	-12.148
▁reply	-12.1482
▁wrist	-12.1482
▁Susan	-12.1482
▁dipped	-12.1482
▁snakes	-12.1493
▁knights	-12.1505
▁chases	-12.1506
aking	-12.1507
Just	-12.1531
Sometimes	-12.1531
▁Sure	-12.1552
v	-12.1558
▁stole	-12.1583
▁K	-12.1583
▁Remember	-12.1585
▁baker	-12.1585
▁expected	-12.1588
▁Paws	-12.1634
▁teased	-12.1639
oh	-12.1644
▁buildings	-12.1653
▁flash	-12.1681
Mum	-12.1684
▁weren	-12.1689
▁mane	-12.1704
▁cuddle	-12.1721
▁shirts	-12.1728
uck	-12.1735
▁peas	-12.1737
▁Leave	-12.1738
▁Beth	-12.1739
▁comforted	-12.1743
T	-12.1758
▁scoop	-12.1773
able	-12.1783
▁st	-12.1789
▁Luckily	-12.1789
▁guns	-12.1797
▁masks	-12.1798
▁sticking	-12.1802
▁cubes	-12.1811
▁decision	-12.1827
▁creation	-12.1827
▁t	-12.1828
op	-12.183
Cat	-12.1839
▁wedding	-12.1841
▁Mouse	-12.1841
▁W	-12.1852
▁packing	-12.1852
▁protecting	-12.1862
co	-12.1862
W	-12.1868
▁rule	-12.188
Great	-12.1893
▁shrug	-12.1893
▁swoop	-12.1893
▁Wisdom	-12.1893
▁Spring	-12.1893
▁crabs	-12.1894
▁Ha	-12.1913
▁spiders	-12.1938
Th	-12.1941
ate	-12.1942
▁Suzie	-12.1946
▁chirping	-12.1947
ru	-12.1958
Silly	-12.1997
▁chick	-12.1999
▁Cuddles	-12.1999
▁patience	-12.1999
▁Enjoy	-12.1999
▁stretching	-12.201
▁lets	-12.205
Achoo	-12.2051
▁Wink	-12.2051
▁conflict	-12.2052
▁Bop	-12.2053
▁improved	-12.2058
▁actions	-12.208
▁wasted	-12.2083
▁keeps	-12.2092
▁mountains	-12.2092
▁rings	-12.2096
▁monsters	-12.2101
▁suggest	-12.2104
Watch	-12.2104
▁faced	-12.2125
▁Al	-12.2146
no	-12.2157
▁Adam	-12.2159
▁Dizzy	-12.2159
▁beads	-12.2159
▁lap	-12.2164
▁Po	-12.2167
▁patiently	-12.2171
men	-12.2185
▁M	-12.2186
▁flags	-12.2188
▁logs	-12.2195
Run	-12.2212
▁destination	-12.2213
▁gotten	-12.2213
▁Princess	-12.2213
▁Two	-12.2214
▁died	-12.2216
▁timer	-12.2216
▁pumpkins	-12.2224
▁gems	-12.2231
▁draws	-12.2236
▁parked	-12.2241
▁Anne	-12.2252
▁kites	-12.2265
▁bank	-12.2268
▁project	-12.2268
▁throat	-12.2268
▁Put	-12.2268
▁shivered	-12.2273
▁visiting	-12.2318
John	-12.2321
seek	-12.2321
▁Jacob	-12.2322
▁third	-12.2322
▁de	-12.2325
▁seven	-12.2377
▁Lena	-12.2377
▁instructions	-12.2377
dy	-12.2379
▁hitting	-12.2388
▁bottles	-12.2405
▁recording	-12.2445
▁teache	-12.2456
▁copy	-12.2467
Bird	-12.2486
▁obey	-12.2486
▁peel	-12.2486
▁Dare	-12.2488
▁pajamas	-12.2488
▁Foxy	-12.2491
▁complaining	-12.2495
ation	-12.2509
▁m	-12.2519
▁lollipops	-12.2519
▁twirl	-12.254
▁pastries	-12.2544
▁Mira	-12.2544
▁agrees	-12.256
Tommy	-12.2599
▁quacked	-12.2603
▁included	-12.2605
▁playroom	-12.2605
▁passing	-12.2618
▁filling	-12.262
R	-12.2624
um	-12.2628
ine	-12.263
Fine	-12.2652
▁Spark	-12.2655
▁Hippy	-12.2657
▁solution	-12.2657
Oops	-12.2657
▁screaming	-12.2669
▁drums	-12.2711
▁insects	-12.2712
▁Luke	-12.2713
▁beneath	-12.2713
▁remote	-12.2713
▁Josh	-12.2713
▁Squirrel	-12.2713
▁reminder	-12.2715
▁Friends	-12.2726
▁limes	-12.2732
ard	-12.275
▁di	-12.276
▁Henny	-12.2763
Stay	-12.2769
Uh	-12.2771
ap	-12.2773
▁Ow	-12.2799
to	-12.2802
Fluffy	-12.2826
Mummy	-12.2827
▁candies	-12.2828
ive	-12.2843
▁tails	-12.2855
▁Ma	-12.2866
▁Claire	-12.2886
▁joking	-12.2886
▁g	-12.2887
▁videos	-12.2892
▁cheering	-12.2894
per	-12.2915
▁dolphins	-12.2937
▁scrubbed	-12.2944
▁exactly	-12.2944
▁fairies	-12.2945
▁workers	-12.2981
▁shoulders	-12.2995
”	-12.3002
▁perched	-12.3003
▁superheroes	-12.3003
▁Our	-12.3004
▁adding	-12.3019
body	-12.3036
▁dots	-12.3043
▁growl	-12.3056
▁cough	-12.3057
▁practicing	-12.3061
▁sobbed	-12.3061
▁pointy	-12.3065
▁H	-12.309
▁brand	-12.312
▁fascinated	-12.312
▁villagers	-12.312
▁sights	-12.3134
▁w	-12.3154
▁helmets	-12.3169
▁helpers	-12.3171
Today	-12.3178
▁snatch	-12.318
▁Hoot	-12.318
▁scarves	-12.318
▁truly	-12.318
use	-12.3233
▁prayer	-12.3236
▁N	-12.3237
away	-12.3239
▁cause	-12.324
▁surface	-12.324
▁bunch	-12.324
▁tiptoe	-12.324
▁winked	-12.3243
▁warnings	-12.3244
▁leaning	-12.3245
▁replaced	-12.3245
▁cuts	-12.3251
▁Sorry	-12.3252
▁drives	-12.3275
▁Dee	-12.3283
▁stumble	-12.3299
Timmy	-12.3299
▁neither	-12.33
▁sponge	-12.33
▁tractor	-12.33
▁Catty	-12.3301
▁Bree	-12.3361
▁Peanut	-12.3361
▁Rolly	-12.3361
▁Santa	-12.3361
▁Jones	-12.3361
▁batteries	-12.3361
▁X	-12.3361
▁misses	-12.3363
▁badge	-12.3365
Then	-12.3369
▁windy	-12.3371
you	-12.3412
▁situation	-12.3417
▁crow	-12.3419
▁images	-12.3419
▁achieve	-12.3421
ho	-12.3424
▁provided	-12.3427
▁doctors	-12.3435
▁Buggy	-12.3483
▁awesome	-12.3483
▁rescued	-12.3489
▁balanced	-12.3497
▁rolls	-12.3504
▁lettuce	-12.3545
▁Jeff	-12.3545
▁Kids	-12.3545
▁pencils	-12.3546
▁buzzed	-12.3546
▁biting	-12.3565
▁pans	-12.3566
”.	-12.3568
▁Ally	-12.3591
bye	-12.3594
▁Betsy	-12.3607
▁starfish	-12.3607
▁paddled	-12.3609
▁sewed	-12.3609
▁loading	-12.3617
▁wins	-12.362
▁yells	-12.3647
▁Whistle	-12.3669
▁wobbled	-12.367
▁observed	-12.3674
▁patte	-12.369
▁guys	-12.3706
▁rainbows	-12.3728
▁rubs	-12.3731
▁Yesterday	-12.3732
▁everyday	-12.3732
▁neighbourhood	-12.3732
▁venture	-12.3732
▁Jessie	-12.3732
▁Bloom	-12.3733
▁farther	-12.3734
▁curly	-12.3734
▁roses	-12.3746
ack	-12.375
▁age	-12.3762
ge	-12.3773
▁blows	-12.3785
▁siren	-12.3794
Yeah	-12.3795
▁reluctantly	-12.3796
▁Gina	-12.3796
▁promises	-12.3796
▁minerals	-12.3797
▁direction	-12.3857
▁Linda	-12.3859
▁Kayla	-12.3859
▁Matt	-12.386
▁Jenna	-12.386
ring	-12.386
Shh	-12.3863
▁valued	-12.3873
▁smarter	-12.3874
▁chefs	-12.3905
▁creating	-12.3923
▁teamwork	-12.3924
▁Dodo	-12.3925
▁outdoors	-12.3929
▁crumbs	-12.3941
▁vow	-12.3988
▁yourselves	-12.3988
▁Love	-12.3988
▁Get	-12.3989
▁caused	-12.399
▁Skip	-12.4053
▁ham	-12.4069
▁towels	-12.408
tor	-12.4081
▁signed	-12.4103
▁O	-12.4112
▁Duck	-12.4118
▁giggling	-12.4118
▁stem	-12.4118
▁Nana	-12.4118
▁outfit	-12.4118
Time	-12.4124
we	-12.4127
ip	-12.4132
▁paying	-12.414
Jack	-12.4182
▁deserve	-12.4182
▁Cindy	-12.4184
▁desert	-12.4185
▁traded	-12.419
rr	-12.4193
▁Co	-12.4242
▁hunt	-12.4247
▁alien	-12.4251
▁sprinkle	-12.4251
▁snowmen	-12.4251
▁bare	-12.4254
▁performed	-12.4263
ac	-12.4295
▁curtains	-12.4295
▁nine	-12.4317
▁scurr	-12.4317
▁steer	-12.4317
▁Robbie	-12.4317
▁mission	-12.4317
▁Stay	-12.4319
▁princesses	-12.4321
▁praying	-12.4327
▁singer	-12.4342
▁prettier	-12.4384
▁Rover	-12.4384
▁Lion	-12.4384
▁Goodbye	-12.4387
ig	-12.4441
▁po	-12.4446
▁Chris	-12.4451
▁satisfied	-12.4451
▁supplies	-12.4451
▁twinkling	-12.4451
▁Grumpy	-12.4452
▁Pup	-12.4452
▁puppet	-12.4453
▁sled	-12.4454
▁introduced	-12.4456
▁growling	-12.4456
▁itchy	-12.4457
▁speaking	-12.4467
▁rainy	-12.4511
▁sneezing	-12.4519
▁dip	-12.452
▁leading	-12.4539
▁rockets	-12.4566
ul	-12.4577
▁competition	-12.4588
▁glasses	-12.4591
▁homework	-12.4596
▁Jessica	-12.4657
▁Julia	-12.4657
▁behaving	-12.4657
▁steady	-12.4657
▁underneath	-12.4657
▁Sadly	-12.4657
▁deal	-12.4657
▁becoming	-12.466
▁toaster	-12.4661
▁completely	-12.4662
▁younger	-12.4667
▁R	-12.469
▁remembering	-12.4713
▁photos	-12.4718
Lila	-12.4725
▁Cathy	-12.4726
▁inviting	-12.4726
▁pennies	-12.4726
▁relief	-12.4726
▁wow	-12.4726
▁Dara	-12.4726
▁cautiously	-12.4727
ha	-12.4753
▁noses	-12.4754
▁explorers	-12.4758
▁arrows	-12.4789
Hold	-12.4795
▁exhausted	-12.4796
▁losing	-12.4796
▁Cara	-12.4797
▁effort	-12.4801
▁complained	-12.4804
nna	-12.4806
▁buying	-12.4826
▁den	-12.484
▁pat	-12.4842
na	-12.4847
▁librarian	-12.4867
▁Tara	-12.4867
▁Bug	-12.4867
▁Welcome	-12.4871
▁Jay	-12.4874
ish	-12.4903
▁vines	-12.4915
▁scold	-12.4936
Roar	-12.4936
▁entrance	-12.4938
▁worries	-12.4938
▁Twinkle	-12.4938
▁Sparky	-12.4939
▁salty	-12.4944
▁marked	-12.4948
▁guessing	-12.4956
▁matters	-12.4972
▁Me	-12.4998
Bad	-12.5008
▁mushrooms	-12.5009
▁properly	-12.5009
▁Snap	-12.5009
▁bravery	-12.5018
▁wandering	-12.502
▁jackets	-12.5025
▁ripe	-12.5042
▁glitter	-12.5076
E	-12.5079
▁Quick	-12.5081
▁greet	-12.5081
▁June	-12.5081
▁fact	-12.5081
▁genie	-12.5081
▁Fido	-12.5081
▁startled	-12.5082
▁pecked	-12.5083
▁requested	-12.5085
▁blooming	-12.5098
▁colored	-12.511
▁cobwebs	-12.5133
▁swans	-12.5149
▁click	-12.5152
Whee	-12.5152
▁nectar	-12.5154
▁seagull	-12.5154
▁bumpy	-12.5156
▁choices	-12.5161
her	-12.5164
▁joked	-12.5171
ssed	-12.518
▁waiter	-12.5188
▁flutter	-12.5224
▁Nick	-12.5226
▁restored	-12.5233
▁forks	-12.5239
let	-12.5252
▁lighter	-12.5259
▁hider	-12.5259
▁Rock	-12.5291
Grandma	-12.5299
▁harm	-12.53
▁Copper	-12.53
▁feast	-12.53
▁plain	-12.53
▁Trust	-12.53
▁learns	-12.5306
▁skill	-12.5308
▁squares	-12.5309
▁Sun	-12.5315
▁ornaments	-12.5323
▁calmed	-12.5328
▁bars	-12.5335
Follow	-12.5373
Listen	-12.5373
Our	-12.5373
▁heavier	-12.5374
▁knowledge	-12.5374
▁lamb	-12.5374
▁skunk	-12.5374
▁tangled	-12.5374
▁written	-12.5374
▁tick	-12.5374
▁Tree	-12.5375
ink	-12.538
▁darkness	-12.5382
be	-12.5395
▁clowns	-12.5407
▁rid	-12.541
▁Re	-12.5423
▁tires	-12.5424
▁basement	-12.5449
▁reason	-12.5449
▁refreshed	-12.5449
▁piggy	-12.5449
▁crowd	-12.545
▁onions	-12.55
▁twinkle	-12.5523
▁untie	-12.5523
▁wobble	-12.5523
▁bodies	-12.5524
▁cousin	-12.5524
▁recipe	-12.5524
▁super	-12.5524
▁suffering	-12.5532
▁peeking	-12.5536
▁Robo	-12.5536
▁mailed	-12.5551
L	-12.5559
▁cast	-12.5599
▁Rollie	-12.56
▁Skelly	-12.56
▁forehead	-12.56
▁chuckled	-12.56
▁Jess	-12.56
Dog	-12.5605
▁tricky	-12.5609
▁muscle	-12.561
ca	-12.5619
▁pins	-12.562
▁pro	-12.5671
▁Christmas	-12.5676
▁Lizzie	-12.5676
▁Ziggy	-12.5676
▁plenty	-12.5676
▁aimed	-12.5676
▁interested	-12.5677
▁purr	-12.5683
▁siblings	-12.5683
▁swims	-12.5695
ren	-12.57
pa	-12.5729
▁stool	-12.5753
▁Kip	-12.5753
▁Try	-12.5754
▁closes	-12.5759
▁touches	-12.5768
▁Lia	-12.5774
▁lifting	-12.5788
▁Robert	-12.583
▁burst	-12.583
▁daisies	-12.583
▁least	-12.583
▁scratches	-12.5831
▁delivered	-12.5843
▁slower	-12.5845
ow	-12.5848
▁Sophia	-12.5909
▁Up	-12.5909
▁entire	-12.5909
▁swept	-12.5909
▁ranger	-12.5914
▁forgetting	-12.5916
▁dived	-12.592
▁repaired	-12.5921
ina	-12.5932
▁buzz	-12.5983
vroom	-12.5986
▁list	-12.5987
Which	-12.5987
▁raincoat	-12.5987
▁wiping	-12.5987
▁Nothing	-12.5988
▁kicks	-12.6038
▁wipes	-12.6046
ug	-12.6059
▁Birthday	-12.6067
▁Emmy	-12.6067
▁fabric	-12.6067
▁planning	-12.6067
▁squealed	-12.6067
▁stomped	-12.6068
▁discovering	-12.6076
▁unpacked	-12.6077
G	-12.6081
▁gardener	-12.6095
ince	-12.6108
ber	-12.6124
▁Mi	-12.6134
ny	-12.6142
▁Chirp	-12.6146
▁Laser	-12.6147
▁Milo	-12.6147
▁Biggie	-12.6147
yes	-12.6152
▁camping	-12.6159
▁darling	-12.6161
▁swords	-12.6217
▁chop	-12.6227
Exc	-12.6227
▁drift	-12.6227
▁decorating	-12.6227
▁dentist	-12.6227
▁hesitated	-12.6227
▁bakery	-12.623
▁spikes	-12.6235
▁avocados	-12.6235
ill	-12.6235
▁crackers	-12.6245
▁co	-12.625
▁knocks	-12.6255
▁printing	-12.6259
▁flames	-12.6275
▁warmer	-12.6277
my	-12.6284
▁wraps	-12.6308
▁confident	-12.6308
▁froze	-12.6308
▁Snuggles	-12.6309
▁Stella	-12.6309
▁hallway	-12.6309
▁Want	-12.6309
▁honked	-12.6312
▁shrinking	-12.6323
▁sn	-12.6325
▁spreading	-12.6337
Ah	-12.6339
▁ropes	-12.636
▁celebration	-12.6391
▁hedgehog	-12.6391
▁seaweed	-12.6391
▁stung	-12.6391
▁grand	-12.6391
▁Crab	-12.6391
▁Missy	-12.6398
▁separated	-12.6399
▁everybody	-12.6399
▁poster	-12.6406
▁flavor	-12.6407
vi	-12.6424
▁bowls	-12.6426
ered	-12.6434
▁knees	-12.6441
▁triangles	-12.6467
▁Near	-12.6473
Ribbit	-12.6473
▁Bones	-12.6473
▁husband	-12.6473
▁impossible	-12.6473
▁particular	-12.6473
▁tweet	-12.6473
▁tickled	-12.6477
F	-12.6518
ci	-12.6526
▁bows	-12.6537
choo	-12.655
▁suitcase	-12.6557
▁Patch	-12.6557
▁rotting	-12.6559
▁zebras	-12.656
▁gears	-12.6561
▁Mikey	-12.6562
▁sense	-12.6567
▁raindrops	-12.6568
▁however	-12.657
▁lending	-12.6571
▁blocked	-12.658
ble	-12.6602
▁Not	-12.661
▁mints	-12.6627
▁maker	-12.6628
▁ache	-12.6635
▁pe	-12.6636
▁peck	-12.6639
▁Rudy	-12.6641
▁beyond	-12.6641
▁rising	-12.6641
▁Abbie	-12.6641
▁stolen	-12.6642
▁necklaces	-12.6656
▁creations	-12.6662
▁Car	-12.6671
▁tunnels	-12.6673
ant	-12.6673
▁Pa	-12.6695
▁baths	-12.6703
▁hopeful	-12.6725
▁puppies	-12.6725
▁rotten	-12.6725
▁Mint	-12.6725
▁budge	-12.6725
▁fever	-12.6725
▁tapped	-12.6726
▁dollhouse	-12.6726
▁consequences	-12.6728
▁lifts	-12.6733
om	-12.6733
▁sp	-12.6737
▁seeker	-12.6737
▁strongest	-12.674
ail	-12.6744
▁covers	-12.6768
▁whispers	-12.6769
▁cheeks	-12.677
▁magnets	-12.6775
one	-12.6777
▁fins	-12.6777
So	-12.6782
Jump	-12.6809
▁Larry	-12.6811
▁Maya	-12.6812
▁Hold	-12.6813
▁shops	-12.6825
▁films	-12.6831
▁wound	-12.6832
▁seconds	-12.6832
▁slips	-12.6845
▁passports	-12.6848
▁clues	-12.6854
▁counts	-12.6859
▁Dot	-12.6878
▁regrett	-12.6885
Rex	-12.6896
▁Fish	-12.6897
▁determination	-12.6897
▁Lou	-12.6897
▁Ball	-12.6898
ding	-12.6898
▁Kit	-12.69
▁twirling	-12.6901
▁blinking	-12.6905
▁prove	-12.6916
▁Tia	-12.6925
▁objects	-12.6931
all	-12.6938
▁laying	-12.6942
▁Afterwards	-12.6984
▁Marie	-12.6984
▁Martha	-12.6984
▁liquid	-12.6984
▁stroked	-12.6985
▁meals	-12.7022
▁students	-12.7022
▁dancers	-12.7024
▁De	-12.7034
Bobo	-12.7071
▁Laura	-12.7072
▁horizon	-12.7072
▁indeed	-12.7072
▁slamm	-12.7074
▁Pam	-12.7078
▁pens	-12.708
▁rewarded	-12.7083
▁designed	-12.7089
do	-12.7095
▁napkins	-12.7107
▁softer	-12.7125
▁sparks	-12.7126
▁lungs	-12.7135
▁fuzzy	-12.716
▁ponies	-12.716
▁rumble	-12.716
▁Wise	-12.716
▁dropping	-12.7161
▁pouted	-12.7161
▁surprising	-12.7163
▁sewing	-12.7165
▁Davey	-12.7166
▁buses	-12.7166
▁Ant	-12.7169
▁frowning	-12.717
▁forgets	-12.7172
▁delivering	-12.7178
▁uses	-12.7233
▁intrigued	-12.7249
▁artist	-12.7249
▁tying	-12.725
▁unsure	-12.725
▁Listen	-12.7251
▁handful	-12.7254
▁talent	-12.7272
▁cost	-12.7274
but	-12.7283
▁groups	-12.7287
ier	-12.7288
▁sunflowers	-12.7313
board	-12.7335
▁Holly	-12.734
▁cuddly	-12.734
▁reflection	-12.734
Ew	-12.734
▁achieved	-12.7342
▁directions	-12.7342
age	-12.7346
▁tr	-12.7346
▁players	-12.7353
▁Moon	-12.7363
▁marker	-12.7368
▁wears	-12.7375
ia	-12.7386
side	-12.7403
▁figures	-12.7413
ther	-12.7413
▁Je	-12.7414
▁includ	-12.7424
▁activities	-12.743
▁beginning	-12.743
▁grabbing	-12.743
▁grip	-12.7431
▁Ruff	-12.7431
▁firefly	-12.7431
▁storekeeper	-12.7431
▁pancakes	-12.744
▁Roo	-12.7442
▁chef	-12.7456
▁grows	-12.7461
▁feeding	-12.7463
▁ma	-12.7496
the	-12.7501
▁damage	-12.7521
▁farthest	-12.7522
▁Barky	-12.7523
▁Jump	-12.7523
▁recommended	-12.753
▁thrown	-12.7538
▁leads	-12.7544
▁slowed	-12.7584
ous	-12.7591
▁hops	-12.7605
ma	-12.7613
▁changing	-12.7615
▁guide	-12.7615
▁spat	-12.7615
▁Fuzzy	-12.7615
▁untied	-12.7617
▁Oliver	-12.7617
ah	-12.7644
▁screws	-12.7646
▁twisting	-12.7646
▁Mabel	-12.7708
ity	-12.771
▁bumps	-12.771
▁stopping	-12.7712
ag	-12.7714
▁nervously	-12.7722
▁Toot	-12.7739
▁loops	-12.7767
ki	-12.7796
▁squeak	-12.78
▁silent	-12.7802
▁Karen	-12.7803
▁Lenny	-12.7803
▁sale	-12.7803
▁thud	-12.7803
▁tummies	-12.7803
▁source	-12.7805
▁die	-12.7811
▁hides	-12.7813
▁growls	-12.7813
▁cleaner	-12.7814
▁Ra	-12.7822
▁drawn	-12.7831
▁backward	-12.7832
▁shoo	-12.784
▁Yet	-12.7898
▁clip	-12.7898
▁mermaid	-12.7898
▁Farmer	-12.7898
▁Janie	-12.7898
▁surfboard	-12.7898
▁symbols	-12.7925
ave	-12.7977
man	-12.7993
▁rusty	-12.7994
▁Beaky	-12.7994
▁flapping	-12.7994
▁increased	-12.8001
time	-12.8029
▁colder	-12.804
▁presse	-12.8047
bra	-12.8048
▁hangers	-12.8064
U	-12.8091
▁swirl	-12.8091
▁Judy	-12.8091
▁Simon	-12.8091
▁Wendy	-12.8091
▁tissue	-12.8091
▁Elephant	-12.8091
▁countryside	-12.8091
▁wept	-12.8091
lent	-12.8095
▁gr	-12.8097
▁Willy	-12.8104
▁borrowed	-12.8111
▁labels	-12.8129
▁jobs	-12.8157
ance	-12.816
▁ho	-12.8164
▁insist	-12.8185
▁bleed	-12.8187
—	-12.8188
▁Along	-12.8189
▁Frosty	-12.8189
▁audience	-12.8189
▁celebrating	-12.8189
▁mixture	-12.8189
▁twice	-12.8189
▁wrapping	-12.819
▁vehicles	-12.8193
▁delivery	-12.8198
▁somebody	-12.8206
▁adult	-12.8222
▁paths	-12.8228
▁avoid	-12.8286
▁stain	-12.8286
Very	-12.8287
Beep	-12.8287
▁stern	-12.8287
▁Ryan	-12.8288
▁forgiving	-12.8288
▁trampoline	-12.8288
▁‘	-12.8288
▁master	-12.8292
red	-12.8292
▁treehouse	-12.8296
▁gracefully	-12.8297
▁aside	-12.8303
top	-12.8317
▁robber	-12.8322
▁Sh	-12.8332
ally	-12.8359
ep	-12.8361
▁Izzy	-12.8388
▁Maddie	-12.8388
▁Navy	-12.8388
▁beehive	-12.8388
▁couple	-12.8388
▁tipped	-12.8388
▁Fire	-12.839
▁stays	-12.8394
▁Mel	-12.8412
und	-12.8432
▁needles	-12.8458
▁fl	-12.8466
▁spins	-12.8478
▁Daniel	-12.8489
▁Outside	-12.8489
▁Snowman	-12.8489
▁squishy	-12.8489
▁camel	-12.8491
▁anger	-12.8493
ually	-12.8506
▁wisely	-12.8538
▁queens	-12.8574
bi	-12.8579
▁kings	-12.8582
Buddy	-12.859
Get	-12.859
Guess	-12.8591
▁Jolly	-12.8591
▁creativity	-12.8591
▁preparing	-12.8591
▁sank	-12.8591
▁elf	-12.8591
▁Queen	-12.8591
▁pad	-12.8591
▁slipping	-12.8591
▁chosen	-12.8596
▁guests	-12.8641
▁curiously	-12.8665
J	-12.8687
▁raccoon	-12.8694
▁screwdriver	-12.8694
▁squeezing	-12.8694
po	-12.8696
▁firefighter	-12.8732
▁hearing	-12.8734
▁sweets	-12.8748
nie	-12.8757
Tak	-12.876
▁belts	-12.8761
▁la	-12.8767
cu	-12.8772
▁chirp	-12.8794
▁Titi	-12.8798
▁accomplishment	-12.8798
▁evil	-12.8798
▁hawk	-12.8798
▁munch	-12.8798
▁firmly	-12.8799
▁magician	-12.88
▁Woof	-12.8805
▁trembled	-12.8806
nny	-12.8838
Like	-12.8902
▁gross	-12.8904
▁imagining	-12.8904
▁sailboat	-12.8904
▁among	-12.8904
▁talented	-12.8906
▁tighter	-12.8927
▁cushions	-12.8934
mer	-12.8936
▁Ash	-12.8945
war	-12.895
▁slices	-12.897
▁flavors	-12.8988
work	-12.8993
Put	-12.9009
Moo	-12.9009
▁geese	-12.901
▁pleasure	-12.901
▁Jonny	-12.901
▁Ana	-12.9018
▁reads	-12.902
▁Ro	-12.9034
▁tables	-12.904
▁ties	-12.9048
▁dollars	-12.9048
▁j	-12.9077
▁Ali	-12.909
▁fin	-12.9097
ying	-12.9115
Fin	-12.9115
K	-12.9116
Quack	-12.9116
loved	-12.9116
▁Rich	-12.9118
▁dump	-12.9118
▁vanilla	-12.9118
▁overcome	-12.9119
▁napped	-12.912
ick	-12.9124
▁suffered	-12.9127
▁hotter	-12.9128
ded	-12.9129
▁giggles	-12.9197
ably	-12.9226
▁University	-12.9226
▁crew	-12.9226
▁familiar	-12.9226
▁hesitant	-12.9226
▁shinier	-12.9226
▁Granny	-12.9226
▁l	-12.9232
▁scored	-12.9235
▁Rain	-12.9235
▁supported	-12.9244
▁playhouse	-12.9245
▁hour	-12.9271
▁creamy	-12.9298
▁spells	-12.9301
▁shown	-12.9314
▁nests	-12.9319
beep	-12.9335
▁Amelia	-12.9336
▁Fiona	-12.9336
▁afterwards	-12.9336
▁nuzzle	-12.9336
▁solving	-12.9336
▁wiggly	-12.9336
▁wobbly	-12.9336
▁ex	-12.9336
▁Show	-12.9337
▁Quack	-12.9337
▁watering	-12.9343
▁gasp	-12.9344
▁shaped	-12.9355
▁flip	-12.9356
▁shovels	-12.9357
▁performing	-12.9363
ide	-12.9367
igh	-12.937
▁Sp	-12.9381
▁knots	-12.9439
Vroom	-12.9446
▁Chew	-12.9446
▁cashier	-12.9447
▁encouraging	-12.9447
▁enthusiasm	-12.9447
▁glee	-12.9447
▁widened	-12.9447
▁runner	-12.9447
▁Yoga	-12.9447
▁Cow	-12.9448
▁sped	-12.945
▁coloured	-12.9452
▁pedaled	-12.9456
▁sweetest	-12.9457
▁Momma	-12.9457
▁kittens	-12.9461
▁fleas	-12.9463
▁stands	-12.9468
▁respected	-12.9471
ily	-12.9471
▁tested	-12.9484
▁bathing	-12.9485
▁guy	-12.9494
▁pours	-12.9528
by	-12.9529
▁markers	-12.953
▁Okay	-12.9544
Bang	-12.9558
First	-12.9558
▁yum	-12.956
▁Spirit	-12.956
▁Vivi	-12.956
▁Zee	-12.956
▁spies	-12.956
▁flipped	-12.956
▁flown	-12.956
▁Desp	-12.956
▁swallowed	-12.9561
▁potion	-12.9563
▁reversed	-12.9571
Zoom	-12.9575
▁glued	-12.9586
▁crossing	-12.9596
▁firefighters	-12.9631
▁suits	-12.9647
▁Flo	-12.9647
Boys	-12.9658
▁bracelets	-12.9658
▁ignor	-12.9667
N	-12.9669
▁center	-12.9673
▁groceries	-12.9673
▁handsome	-12.9673
▁Ria	-12.9673
▁Mina	-12.9673
▁Shelly	-12.9674
▁Abi	-12.9678
▁drawers	-12.9685
▁surfing	-12.9689
▁pinching	-12.9691
▁pandas	-12.9707
pi	-12.9713
▁minded	-12.9714
▁fits	-12.9715
An	-12.972
▁claw	-12.9723
▁melons	-12.9724
▁item	-12.973
bo	-12.9735
Leave	-12.9787
Mine	-12.9787
▁secure	-12.9787
▁Ruth	-12.9788
▁shady	-12.9788
▁terrified	-12.9788
▁Fight	-12.9789
▁Although	-12.9791
▁blown	-12.9795
▁yielded	-12.98
▁engines	-12.9804
▁oysters	-12.9828
▁onward	-12.9839
ze	-12.9842
▁thorns	-12.9845
▁Ba	-12.986
▁ships	-12.9871
▁hoops	-12.9899
▁straw	-12.9905
▁performance	-12.9905
▁focused	-12.9906
▁drivers	-12.9907
▁Ready	-12.9914
▁peacefully	-12.9921
▁covering	-12.9935
ary	-12.9956
▁bulbs	-12.9967
▁sailors	-12.997
▁streets	-13.0002
qui	-13.0021
Keep	-13.0021
▁Jojo	-13.0022
▁Kevin	-13.0022
▁Michael	-13.0022
▁Yawn	-13.0022
▁poppies	-13.0022
▁Stretch	-13.0022
▁grin	-13.0022
▁languages	-13.0026
Dear	-13.0036
▁disturbing	-13.004
▁pigeons	-13.0094
▁haircuts	-13.0105
ris	-13.0117
ok	-13.0122
▁Ron	-13.0123
▁turtles	-13.0137
▁Meanwhile	-13.0141
▁Razor	-13.0141
▁miles	-13.0141
▁panicked	-13.0141
▁temperature	-13.0141
▁Biggy	-13.0141
▁tigers	-13.0176
▁Lu	-13.0179
▁Sal	-13.0182
▁seasons	-13.0189
car	-13.0191
▁willing	-13.0197
▁spits	-13.021
▁Well	-13.0215
bird	-13.0256
years	-13.026
▁Todd	-13.0262
▁gesture	-13.0262
▁knives	-13.0262
▁mesmerized	-13.0262
▁paintbrush	-13.0262
▁Doctor	-13.0262
▁corners	-13.0267
ving	-13.027
▁sharks	-13.0272
gie	-13.0276
▁resisted	-13.0279
▁switched	-13.0281
▁combed	-13.0289
▁o	-13.0306
▁mo	-13.031
▁builder	-13.0311
▁erase	-13.0383
▁Samantha	-13.0384
▁burrow	-13.0384
▁encouragement	-13.0384
▁1	-13.0384
▁Tweetie	-13.0385
▁changes	-13.0391
▁prayers	-13.0396
▁designs	-13.0406
▁sending	-13.0409
▁brushing	-13.0432
▁braver	-13.0432
▁spills	-13.0436
▁seals	-13.0457
▁ba	-13.0458
▁wa	-13.0464
▁sports	-13.0477
▁darlings	-13.0485
▁efforts	-13.0499
tock	-13.0503
▁owners	-13.0503
H	-13.0503
Y	-13.0505
▁Until	-13.0507
▁caw	-13.0507
▁manners	-13.0507
▁toddler	-13.0507
▁Sparkle	-13.0508
▁mosquitoes	-13.051
▁deed	-13.0511
▁relaxing	-13.0534
▁speeding	-13.0538
▁longest	-13.0548
▁roars	-13.0588
▁backpacks	-13.0603
▁charge	-13.0631
▁firm	-13.0631
▁Maddy	-13.0632
▁Vicky	-13.0632
▁aisle	-13.0632
▁Sadie	-13.0632
▁suggestion	-13.0632
▁travelled	-13.0633
▁dripping	-13.0633
▁throughout	-13.0638
▁sniffs	-13.0671
▁angels	-13.0676
▁action	-13.0694
▁goats	-13.0696
cat	-13.0734
▁joining	-13.0755
On	-13.0755
▁Prince	-13.0758
▁compassion	-13.0759
▁Turtle	-13.0759
▁chipmunk	-13.0759
▁daring	-13.0759
▁ramp	-13.0759
▁twenty	-13.0759
▁Loop	-13.0759
▁Zipper	-13.0759
▁matey	-13.0759
▁ouch	-13.0759
▁zipping	-13.076
▁beeped	-13.0778
ough	-13.078
▁healing	-13.0786
La	-13.0787
▁puzzled	-13.0799
▁breathed	-13.0803
iest	-13.0836
ash	-13.0847
Tweet	-13.0885
Bunny	-13.0885
▁con	-13.0886
Doggy	-13.0886
▁grandchild	-13.0887
▁Katy	-13.0887
▁icing	-13.0887
▁scarecrow	-13.0887
▁beaver	-13.0887
▁gazing	-13.0887
▁Shadow	-13.0887
▁Honey	-13.0888
▁mood	-13.0888
▁Nice	-13.0888
▁spoonful	-13.0889
▁peeled	-13.0891
▁discussed	-13.0898
▁quarreled	-13.0908
▁stacked	-13.0909
▁begin	-13.0911
our	-13.0915
▁frowns	-13.0933
▁pupils	-13.0934
▁dresser	-13.0943
Car	-13.095
▁stored	-13.0952
▁bells	-13.0958
▁puff	-13.1015
Big	-13.1015
▁Eddie	-13.1017
Alright	-13.1017
▁Fairy	-13.1017
▁except	-13.1017
▁flight	-13.1017
▁sprang	-13.1017
▁warrior	-13.1017
▁10	-13.1017
▁Jax	-13.1017
▁business	-13.1017
▁scraped	-13.1018
▁Chewy	-13.1018
▁Zoey	-13.102
▁floats	-13.1039
▁Lo	-13.105
▁Cha	-13.1055
▁Man	-13.1061
▁cloudy	-13.1061
▁Jan	-13.1077
▁scooters	-13.1079
▁coloring	-13.108
▁clue	-13.1084
▁crawls	-13.109
▁backwards	-13.1108
▁Fa	-13.1111
▁burnt	-13.1142
▁aliens	-13.1147
▁Becky	-13.1148
▁Eric	-13.1148
▁Still	-13.1148
▁doorbell	-13.1148
▁worn	-13.1148
▁playdate	-13.1148
▁battle	-13.1149
▁sneezes	-13.1149
▁Mindy	-13.1149
▁Bang	-13.115
ade	-13.1163
▁scattering	-13.1169
▁burying	-13.1169
▁quieter	-13.1178
▁lo	-13.1195
Danger	-13.1251
di	-13.1253
▁flow	-13.1278
ball	-13.1279
freeze	-13.128
▁Speed	-13.1281
▁Elle	-13.1281
▁Eliza	-13.1282
▁Gabby	-13.1282
▁Louise	-13.1282
▁Maisy	-13.1282
▁believing	-13.1282
▁serving	-13.1282
▁target	-13.1282
▁merry	-13.1282
▁tilted	-13.1282
▁twinkled	-13.1284
▁fluttering	-13.1286
▁magazines	-13.129
▁aeroplanes	-13.1303
▁cracks	-13.1305
▁decisions	-13.1317
▁teams	-13.1324
▁thorn	-13.1351
▁guest	-13.1351
▁J	-13.1359
▁hu	-13.136
▁grassy	-13.139
nother	-13.139
way	-13.1399
▁elbow	-13.1417
▁plucked	-13.1417
▁lipstick	-13.1417
▁Chess	-13.1417
▁failed	-13.1418
▁echoed	-13.1418
▁Bally	-13.1419
▁swimmer	-13.1419
▁desp	-13.1419
▁seller	-13.143
▁Jacky	-13.144
▁bully	-13.1471
▁bandages	-13.1508
▁Fi	-13.152
Kids	-13.1552
▁Nancy	-13.1554
▁purpose	-13.1554
▁scientist	-13.1554
Arrr	-13.1554
▁Bert	-13.1554
▁nodding	-13.1554
▁5	-13.1554
▁Make	-13.1555
▁smashed	-13.1555
▁sternly	-13.1555
▁stitches	-13.1555
▁neatly	-13.1562
▁benches	-13.1565
▁Jackie	-13.1584
▁lies	-13.1608
▁rows	-13.1613
▁shines	-13.1617
▁notes	-13.1643
▁nightmares	-13.1645
▁Hi	-13.1649
▁ta	-13.1682
▁ghosts	-13.1686
Mimi	-13.1691
Goodnight	-13.1693
Shrink	-13.1693
▁Freddie	-13.1693
▁Kelly	-13.1693
▁donkey	-13.1693
▁footsteps	-13.1693
▁Moppy	-13.1693
▁bitten	-13.1693
▁Megan	-13.1693
▁Toys	-13.1693
▁permitted	-13.1693
▁sweaty	-13.1693
▁Playing	-13.1694
ated	-13.1695
▁bellies	-13.1695
▁doorway	-13.1697
▁waddle	-13.1722
▁Mu	-13.1722
▁weekend	-13.1723
▁snowflakes	-13.1724
V	-13.1725
▁Herb	-13.1734
▁bl	-13.1767
▁treated	-13.1775
In	-13.1775
▁flips	-13.1776
▁neighbours	-13.1777
▁talents	-13.1796
▁soaking	-13.1799
ark	-13.1815
▁rats	-13.183
ain	-13.1831
Luna	-13.1832
▁Mixy	-13.1834
▁Mousy	-13.1834
▁marshmallows	-13.1834
▁Tiger	-13.1834
▁ease	-13.1834
▁Zack	-13.1834
▁surroundings	-13.1834
▁Lung	-13.1834
▁Puppy	-13.1834
▁dragonfly	-13.1834
▁stepping	-13.1835
▁sheets	-13.1835
▁Isn	-13.1841
▁destroying	-13.1852
▁crowns	-13.1855
▁Icy	-13.1858
▁risks	-13.1875
ened	-13.1914
--	-13.1935
five	-13.1949
▁leap	-13.1952
▁traps	-13.1952
▁dreamt	-13.1959
Choo	-13.1975
Magic	-13.1975
Quick	-13.1975
what	-13.1975
▁chat	-13.1976
▁blast	-13.1976
▁marvel	-13.1976
▁Bibi	-13.1976
▁Curious	-13.1976
▁Elsie	-13.1976
▁Gerry	-13.1976
▁amount	-13.1976
▁gobbled	-13.1976
▁tasting	-13.1976
▁Lina	-13.1977
▁Frankie	-13.1977
▁dodged	-13.1977
▁health	-13.1978
▁Blinky	-13.1979
▁shorter	-13.1982
▁earn	-13.1983
round	-13.1984
▁demanding	-13.1985
▁Bess	-13.1985
▁wider	-13.1989
▁pol	-13.1995
▁wiser	-13.2006
ba	-13.2029
ched	-13.206
▁accidents	-13.2083
found	-13.2111
▁dressing	-13.2111
▁orders	-13.2111
bby	-13.2115
▁swallow	-13.2119
▁attack	-13.212
Hurry	-13.212
Open	-13.212
zoom	-13.212
▁whine	-13.212
▁tricycle	-13.2121
▁Li	-13.2133
▁expecting	-13.2139
▁bothered	-13.2147
▁materials	-13.2155
▁months	-13.2164
Ho	-13.22
Lo	-13.2233
▁explorer	-13.2234
▁zooms	-13.2259
▁focus	-13.2267
Jane	-13.2267
Try	-13.2267
▁Ralph	-13.2268
▁campfire	-13.2268
▁craft	-13.2268
▁scamper	-13.2268
▁shrank	-13.2268
▁aware	-13.2269
▁Mother	-13.2269
▁sever	-13.2269
▁Meg	-13.2269
▁Say	-13.2269
▁Vroom	-13.227
▁Never	-13.227
▁repeating	-13.2288
Ro	-13.2292
▁files	-13.2298
▁upside	-13.2303
▁breathing	-13.2321
▁swimsuit	-13.2351
▁beetles	-13.236
line	-13.2383
j	-13.2403
Bo	-13.2417
▁drag	-13.2417
▁Flutter	-13.2418
▁Judge	-13.2418
▁awoke	-13.2418
▁cafe	-13.2418
▁punishment	-13.2418
▁swollen	-13.2418
▁Sofia	-13.2418
▁chopped	-13.2418
▁Dotty	-13.2418
▁Dina	-13.2418
▁prob	-13.2418
▁slapping	-13.2418
▁Gus	-13.2418
▁faded	-13.2419
▁Fishy	-13.2419
▁squeaked	-13.2421
▁banged	-13.2427
▁buckled	-13.2433
▁reminding	-13.2434
▁Wait	-13.2435
Should	-13.2442
▁bravest	-13.2446
▁Ice	-13.2479
▁student	-13.2503
▁tubes	-13.2504
▁opinions	-13.2507
▁dears	-13.2546
▁purrs	-13.2548
▁Gill	-13.2568
▁William	-13.2569
▁apologised	-13.2569
▁nasty	-13.2569
▁refreshing	-13.2569
▁sweep	-13.2569
▁freedom	-13.2569
▁pleaded	-13.2569
▁Other	-13.2569
▁Patty	-13.257
▁edges	-13.2575
▁gap	-13.2576
▁sniffing	-13.2576
▁planting	-13.2577
▁characters	-13.2587
ssing	-13.2592
▁visitors	-13.2604
ents	-13.2608
Joe	-13.2612
▁statues	-13.2637
▁sprays	-13.2644
▁sl	-13.2677
▁wounds	-13.2687
▁pops	-13.2704
▁swap	-13.2715
▁Cari	-13.2716
▁cheat	-13.2719
reverse	-13.2722
Sarah	-13.2722
▁freezing	-13.2723
▁garbage	-13.2723
▁humming	-13.2723
▁rescuing	-13.2723
▁simply	-13.2723
▁stall	-13.2723
▁Eat	-13.2724
▁streamers	-13.2725
▁joyful	-13.2725
▁stretches	-13.2727
▁spy	-13.2728
▁crashing	-13.274
Does	-13.2741
▁Of	-13.2744
lar	-13.2756
▁tearing	-13.2756
▁smelling	-13.2797
▁uniforms	-13.2831
illy	-13.2833
Wake	-13.2878
▁Angel	-13.2879
Pretty	-13.2879
▁Ratty	-13.2879
▁annoyed	-13.2879
▁behavior	-13.2879
▁bouquet	-13.2879
▁congratulat	-13.2879
▁cottage	-13.2879
▁curve	-13.2879
▁footprints	-13.2879
▁slither	-13.2879
▁supplied	-13.2879
▁yummies	-13.2879
▁awful	-13.2879
▁court	-13.2879
▁waterfall	-13.2879
▁scent	-13.2879
Deal	-13.2883
All	-13.2897
▁displayed	-13.29
▁Ja	-13.2906
▁cowboy	-13.2972
▁pills	-13.3019
▁provid	-13.3032
▁stomp	-13.3036
Daisy	-13.3037
Someone	-13.3037
▁final	-13.3037
▁example	-13.3038
▁grandparents	-13.3038
▁hairdresser	-13.3038
▁cosy	-13.3038
▁Piggy	-13.3038
▁laptop	-13.3038
▁mommies	-13.3038
▁Gary	-13.3038
▁Rainbow	-13.3038
▁Zippy	-13.3039
▁travelling	-13.3039
▁Jumpy	-13.304
▁sweaters	-13.304
▁Whee	-13.3041
▁shorts	-13.3052
▁scratching	-13.3055
▁knocking	-13.3062
▁traveling	-13.3076
▁trusting	-13.3085
low	-13.3115
▁invites	-13.3139
▁adults	-13.3145
▁Z	-13.3145
ya	-13.3149
ga	-13.3183
▁worrying	-13.3183
▁El	-13.3185
▁cheers	-13.3191
Ollie	-13.3198
Billy	-13.3198
▁Otto	-13.3199
▁Penelope	-13.3199
▁Rita	-13.3199
▁cotton	-13.3199
▁environment	-13.3199
▁heartbroken	-13.3199
▁opposite	-13.3199
▁tempted	-13.3199
▁Joke	-13.3199
▁toolbox	-13.3199
▁tumbled	-13.32
▁whoosh	-13.32
▁Puffy	-13.32
▁driveway	-13.32
▁cells	-13.3201
▁Shark	-13.3201
▁connected	-13.3201
▁base	-13.3203
▁obeyed	-13.3205
▁Mae	-13.3208
▁Sir	-13.3212
▁politely	-13.3223
eat	-13.3233
▁stuffing	-13.3238
▁cuddles	-13.3244
▁snaps	-13.3307
▁pose	-13.3336
mon	-13.3337
meow	-13.3361
Nice	-13.3362
match	-13.3362
▁Eva	-13.3363
▁bride	-13.3363
▁grandson	-13.3363
▁increasing	-13.3363
▁plot	-13.3363
▁toothbrush	-13.3363
▁Belle	-13.3363
▁Roger	-13.3363
▁Gran	-13.3363
▁damaged	-13.3366
▁—	-13.3366
▁snuggle	-13.3366
▁duckling	-13.3371
▁recorder	-13.3372
▁whispering	-13.3378
▁brightest	-13.338
▁delayed	-13.338
▁rushing	-13.3383
▁fr	-13.3395
▁spices	-13.3402
▁bruises	-13.3406
fully	-13.3415
▁moo	-13.3415
▁cowboys	-13.3432
wn	-13.3433
.'"	-13.3439
▁toward	-13.3464
ump	-13.3491
▁caus	-13.3525
lthough	-13.3525
▁connect	-13.3528
▁Amanda	-13.353
▁Elsa	-13.353
▁Halloween	-13.353
▁attitude	-13.353
▁declared	-13.353
▁plug	-13.353
▁ribbit	-13.353
▁stethoscope	-13.353
▁Ashley	-13.353
▁wrapper	-13.3531
▁rely	-13.3533
▁clicked	-13.3534
Hmm	-13.3535
▁Ring	-13.3535
▁weeds	-13.3537
que	-13.3565
ak	-13.3569
▁testing	-13.3597
▁fishes	-13.363
▁decoration	-13.3634
▁meows	-13.3635
land	-13.3647
▁Pin	-13.3662
▁self	-13.3699
▁enemies	-13.3699
▁noodles	-13.3699
▁trotted	-13.3699
▁lump	-13.3699
▁movement	-13.37
Ahoy	-13.37
Too	-13.37
▁collapsed	-13.37
▁manager	-13.3702
▁enjoyable	-13.3702
▁ding	-13.3703
▁singers	-13.3708
▁unpacking	-13.3728
▁Sea	-13.3728
▁instruments	-13.3742
▁sandy	-13.379
▁results	-13.3811
Some	-13.3869
Teddy	-13.387
▁limp	-13.3872
▁Muffin	-13.3872
▁Waffle	-13.3872
▁afford	-13.3872
▁anticipation	-13.3872
▁argument	-13.3872
▁bamboo	-13.3872
▁beanstalk	-13.3872
▁Cell	-13.3872
▁coach	-13.3872
▁Ricky	-13.3872
▁postman	-13.3872
▁killed	-13.3872
▁cheated	-13.3874
▁nibble	-13.3875
▁sirens	-13.3879
▁Helen	-13.3879
▁More	-13.3885
▁checks	-13.389
▁leapt	-13.3901
▁Lot	-13.3904
▁guarding	-13.3908
▁aprons	-13.3911
▁springing	-13.3921
▁snowy	-13.3925
cha	-13.3962
▁tin	-13.3963
▁dent	-13.397
▁explains	-13.3987
▁robbers	-13.3987
bie	-13.4036
▁strips	-13.4042
▁shall	-13.4047
▁Bumpy	-13.4047
▁observing	-13.4047
▁unfair	-13.4047
▁welcoming	-13.4047
▁Wolf	-13.4047
▁Jean	-13.4047
▁Magic	-13.4049
▁flashed	-13.4054
▁yawning	-13.4068
▁spoiling	-13.4074
▁marking	-13.408
tick	-13.4085
▁astronauts	-13.4102
▁bends	-13.411
▁humans	-13.4167
Tree	-13.4224
Leo	-13.4224
that	-13.4224
▁Squeak	-13.4225
▁knit	-13.4226
▁Jason	-13.4226
▁Missile	-13.4226
▁Mixie	-13.4226
▁Nurse	-13.4226
▁closing	-13.4226
▁telescope	-13.4226
▁plugged	-13.4226
▁earned	-13.4228
▁coughed	-13.4231
▁smartest	-13.4236
▁rowed	-13.4243
▁foxes	-13.4247
Ball	-13.4279
▁poses	-13.4298
ley	-13.4329
▁Stan	-13.4335
can	-13.4338
▁winners	-13.4343
▁puck	-13.4349
▁warmly	-13.4399
▁Excited	-13.4407
▁Monster	-13.4408
▁Sasha	-13.4408
▁Silver	-13.4408
▁annoying	-13.4408
▁grandfather	-13.4408
▁pepperoni	-13.4408
▁rhino	-13.4408
▁flick	-13.4408
▁Pick	-13.4408
▁yelped	-13.4409
▁Mine	-13.441
▁Use	-13.4411
▁forgiveness	-13.4413
▁Bobbie	-13.4414
sure	-13.4439
▁flaps	-13.4474
woo	-13.448
▁stroke	-13.4525
Find	-13.4537
▁dollar	-13.4552
Bella	-13.4591
▁fade	-13.4591
▁carrie	-13.4592
For	-13.4592
▁Brain	-13.4593
▁Brian	-13.4593
▁Cici	-13.4593
▁Tammy	-13.4593
▁Tyler	-13.4593
▁brake	-13.4593
▁clerk	-13.4593
▁conversation	-13.4593
▁crops	-13.4593
▁foam	-13.4593
▁generosity	-13.4593
▁hundred	-13.4593
▁raising	-13.4593
▁Amber	-13.4593
▁choosing	-13.4593
▁beaming	-13.4593
▁Flora	-13.4593
▁Lea	-13.4593
▁Auntie	-13.4594
▁2	-13.4594
izz	-13.4605
▁hatch	-13.4615
▁drip	-13.4623
▁supporting	-13.4631
▁honesty	-13.4632
▁cupcakes	-13.4643
ggy	-13.465
▁massages	-13.465
▁vi	-13.4657
pop	-13.4693
ved	-13.4716
▁Ti	-13.4744
▁Y	-13.4746
▁stroll	-13.4779
Molly	-13.478
Whiskers	-13.478
▁Fran	-13.4781
▁thump	-13.4781
Brrr	-13.4781
▁Barry	-13.4781
▁Circle	-13.4781
▁Rebecca	-13.4781
▁Snake	-13.4781
▁Zog	-13.4781
▁disappointment	-13.4781
▁inspired	-13.4781
▁keyhole	-13.4781
▁mischievous	-13.4781
▁paddling	-13.4781
▁trading	-13.4781
▁Floppy	-13.4782
▁Flappy	-13.4782
▁creak	-13.4782
▁belongings	-13.4782
▁Match	-13.4782
▁Tomorrow	-13.4782
▁responded	-13.4783
▁Gray	-13.4783
▁choo	-13.4784
▁glittering	-13.4787
▁appreciated	-13.4789
Grow	-13.4793
▁cutter	-13.4794
▁cleared	-13.4838
▁bathed	-13.4855
▁sc	-13.4874
▁finishing	-13.4876
▁invitations	-13.49
▁type	-13.4907
▁Roar	-13.4918
▁costs	-13.4922
wing	-13.4967
shaped	-13.4972
▁Truck	-13.4973
▁glo	-13.4973
▁Sleep	-13.4974
▁Kay	-13.4974
▁Thunder	-13.4974
▁admit	-13.4974
▁blank	-13.4974
▁rumbling	-13.4974
▁servant	-13.4974
▁teapot	-13.4974
▁appreciation	-13.4974
▁Mila	-13.4974
▁Trucky	-13.4975
▁Baa	-13.4976
▁Mole	-13.4976
▁lunchtime	-13.4976
▁Paula	-13.498
▁experienced	-13.4983
zed	-13.4986
▁cheaper	-13.4988
▁afar	-13.4989
▁discussing	-13.4995
▁rewarding	-13.5004
▁loudest	-13.501
▁designing	-13.5022
▁Win	-13.5034
▁chip	-13.5104
▁Too	-13.5116
▁untangle	-13.5168
Hop	-13.5169
▁Bonnie	-13.517
▁Charlotte	-13.517
▁Cloud	-13.517
▁Inky	-13.517
▁Settle	-13.517
▁Spidey	-13.517
▁Startled	-13.517
▁angrily	-13.517
▁bond	-13.517
▁cocoon	-13.517
▁cooperate	-13.517
▁coral	-13.517
▁date	-13.517
▁local	-13.517
▁moat	-13.517
▁raking	-13.517
▁sculpture	-13.517
▁stew	-13.517
▁snip	-13.517
▁address	-13.517
▁rays	-13.517
▁Bubu	-13.517
▁Monkey	-13.517
▁height	-13.517
▁tapping	-13.5171
▁nibbled	-13.5172
▁insisting	-13.5174
▁hum	-13.5178
Friends	-13.5184
▁Tweety	-13.5184
▁disagreeing	-13.5186
▁comforting	-13.52
▁Bad	-13.5203
▁checking	-13.5205
▁dock	-13.523
▁mattered	-13.5234
▁momma	-13.5256
▁parted	-13.5259
Re	-13.5296
▁customer	-13.5304
▁sill	-13.5321
▁approach	-13.5368
▁croak	-13.5368
Remy	-13.5368
▁rinse	-13.5368
Soon	-13.5369
0	-13.537
▁Saturday	-13.537
▁attempt	-13.537
▁bubbly	-13.537
▁compliment	-13.537
▁emerged	-13.537
▁fantastic	-13.537
▁Bubba	-13.537
▁flock	-13.537
▁masterpiece	-13.537
▁rustling	-13.537
▁Work	-13.537
▁buddy	-13.537
▁Oak	-13.537
▁Crabby	-13.537
light	-13.5371
▁Quacky	-13.5372
▁patches	-13.5374
▁Fly	-13.5376
▁Candy	-13.538
▁Carly	-13.5383
king	-13.5385
▁miller	-13.5387
▁surrendered	-13.5392
▁birdhouse	-13.5394
▁disappearing	-13.54
▁calmly	-13.5403
▁passengers	-13.5416
▁scoops	-13.5425
cy	-13.5438
▁rips	-13.5445
▁freed	-13.545
▁force	-13.5501
▁Janey	-13.5535
con	-13.5553
ian	-13.5567
▁squawk	-13.5572
Fire	-13.5572
Blue	-13.5572
zy	-13.5573
▁wealth	-13.5573
▁Animals	-13.5574
▁Buster	-13.5574
▁Oscar	-13.5574
▁Phil	-13.5574
▁blond	-13.5574
▁classmates	-13.5574
▁compar	-13.5574
▁definitely	-13.5574
▁papa	-13.5574
▁persistence	-13.5574
▁reassured	-13.5574
▁response	-13.5574
▁scribble	-13.5574
▁Cookie	-13.5574
▁Wooly	-13.5574
▁Mona	-13.5574
▁Cally	-13.5574
▁Hopper	-13.5574
▁Life	-13.5574
▁convinced	-13.5575
▁glimmering	-13.5575
▁badger	-13.5578
▁kneeling	-13.5587
▁Sing	-13.5611
▁Does	-13.5622
▁cubs	-13.564
▁customers	-13.5642
Shar	-13.5644
▁tidying	-13.5671
▁bowing	-13.5701
▁landing	-13.5709
▁boil	-13.578
Honey	-13.5781
Mark	-13.5781
▁Fortunately	-13.5782
▁Gertie	-13.5782
▁Microscope	-13.5782
▁born	-13.5782
▁compete	-13.5782
▁drill	-13.5782
▁examining	-13.5782
▁ketchup	-13.5782
▁occasion	-13.5782
▁odd	-13.5782
▁scrambled	-13.5782
▁skate	-13.5782
▁wildflowers	-13.5782
▁Super	-13.5782
▁expression	-13.5782
▁encountered	-13.5783
▁Softy	-13.5783
▁Ever	-13.5783
▁arranged	-13.5783
▁flashes	-13.5783
▁wriggled	-13.5783
▁passes	-13.579
ggle	-13.5795
▁surfed	-13.5806
▁messes	-13.5816
▁whoever	-13.5897
▁Uni	-13.5915
▁astronaut	-13.5929
Shoo	-13.5942
▁signing	-13.5982
▁snort	-13.5993
Jimmy	-13.5994
▁Berry	-13.5995
▁Melissa	-13.5995
▁Nutty	-13.5995
▁Riri	-13.5995
▁Smoke	-13.5995
▁Through	-13.5995
▁bomb	-13.5995
▁erupt	-13.5995
▁fascinating	-13.5995
▁gratitude	-13.5995
▁miracle	-13.5995
▁scrub	-13.5995
▁shave	-13.5995
▁syrup	-13.5995
▁beast	-13.5995
even	-13.5996
▁Pop	-13.5997
Bear	-13.6
▁flashing	-13.6005
▁spilling	-13.6006
ice	-13.6006
▁sincere	-13.601
▁Bea	-13.6094
▁Ami	-13.6106
▁jumper	-13.6127
▁puppets	-13.6207
▁kit	-13.6209
Chirpy	-13.6211
▁Grump	-13.6211
▁Immediately	-13.6212
▁announced	-13.6212
▁apology	-13.6212
▁exchange	-13.6212
▁tidied	-13.6212
▁watermelon	-13.6212
▁woodcutter	-13.6212
▁positive	-13.6212
▁Brad	-13.6212
▁suck	-13.6212
▁blade	-13.6212
▁grain	-13.6212
▁Ravi	-13.6213
▁Terry	-13.6213
▁wrinkled	-13.6213
▁chatter	-13.6213
▁tale	-13.6213
▁grumbled	-13.6213
▁Tell	-13.6213
▁accomplished	-13.6213
▁dial	-13.6213
▁squeaky	-13.6215
▁meowing	-13.6225
ced	-13.6229
▁germs	-13.6234
▁raked	-13.6237
▁laces	-13.6247
▁hardest	-13.626
▁tri	-13.6276
▁Danc	-13.6379
▁Cars	-13.6386
▁sleds	-13.6429
▁charm	-13.6432
▁Bark	-13.6434
▁depend	-13.6434
ara	-13.6435
Imagine	-13.6435
▁Bingo	-13.6435
▁Captain	-13.6435
▁Gracie	-13.6435
▁Matilda	-13.6435
▁Peep	-13.6435
▁affect	-13.6435
▁cheetah	-13.6435
▁hood	-13.6435
▁hooves	-13.6435
▁shortcut	-13.6435
▁trigger	-13.6435
▁worst	-13.6435
▁Cut	-13.6435
▁robe	-13.6435
▁Coby	-13.6435
▁toppings	-13.6435
▁pump	-13.6435
▁chatted	-13.6435
▁unfortunately	-13.6435
▁windowsill	-13.6435
▁Close	-13.6436
▁inches	-13.6436
▁rack	-13.6436
▁blushed	-13.6436
▁cheating	-13.6438
▁flowing	-13.6438
▁foreshadow	-13.6441
gged	-13.6452
▁thicker	-13.6453
▁hisses	-13.6458
▁soapy	-13.6471
▁returning	-13.6477
▁v	-13.6487
▁types	-13.6512
Catch	-13.6514
▁Boom	-13.6534
▁risk	-13.6595
▁burger	-13.6595
▁month	-13.6596
ccidents	-13.661
Share	-13.6617
ould	-13.6634
▁slam	-13.6657
▁sweat	-13.666
like	-13.666
▁realise	-13.6661
▁pout	-13.6661
Sun	-13.6661
▁bud	-13.6662
▁Roxy	-13.6662
▁Yellow	-13.6662
▁admiration	-13.6662
▁icky	-13.6662
▁shrunk	-13.6662
▁amused	-13.6662
▁property	-13.6662
▁glare	-13.6662
▁chin	-13.6662
▁sadder	-13.6662
▁artwork	-13.6662
▁blamed	-13.6663
▁Robin	-13.6663
▁active	-13.6663
lping	-13.6664
▁bluebird	-13.667
▁Yummy	-13.667
Three	-13.6672
▁honking	-13.6673
▁tingl	-13.6675
▁situations	-13.6681
▁clu	-13.6697
▁members	-13.6719
▁nicest	-13.6761
▁coop	-13.6818
other	-13.6848
gging	-13.6862
▁ro	-13.6871
Freeze	-13.6893
▁Flick	-13.6894
▁Matthew	-13.6894
▁White	-13.6894
▁confidence	-13.6894
▁countries	-13.6894
▁doorstep	-13.6894
▁extraordinary	-13.6894
▁facing	-13.6894
▁faint	-13.6894
▁natural	-13.6894
▁tantrum	-13.6894
▁thieves	-13.6894
▁unzip	-13.6894
▁wolves	-13.6894
▁wrench	-13.6894
▁undone	-13.6895
▁scurrying	-13.6895
Cheese	-13.6895
▁groaned	-13.6895
▁fooled	-13.6895
▁squished	-13.6895
▁Didi	-13.6896
▁checkout	-13.6896
▁Hurry	-13.6897
▁Quickly	-13.6897
Fly	-13.6898
▁booth	-13.6899
Jill	-13.6902
▁youngest	-13.6903
▁pressing	-13.6916
▁rustle	-13.6923
▁forgiven	-13.6924
▁clearly	-13.6924
▁crumb	-13.6935
▁repairing	-13.6939
▁Jon	-13.6991
▁seated	-13.7007
vin	-13.7032
▁Doug	-13.7113
▁interest	-13.7129
▁disobey	-13.7131
▁blush	-13.7131
Lisa	-13.7131
Mouse	-13.7131
Trust	-13.7131
welcome	-13.7131
snap	-13.7131
Once	-13.7131
▁Puff	-13.7132
▁Chick	-13.7132
Never	-13.7132
▁Cammy	-13.7133
▁Faye	-13.7133
▁Felix	-13.7133
▁Ginger	-13.7133
▁Reliable	-13.7133
▁Rufus	-13.7133
▁Rusty	-13.7133
▁habit	-13.7133
▁possession	-13.7133
▁prank	-13.7133
▁riverbank	-13.7133
▁shh	-13.7133
▁sprout	-13.7133
▁squinted	-13.7133
▁capture	-13.7133
▁squirt	-13.7133
▁inchworm	-13.7133
▁fries	-13.7133
▁Jody	-13.7133
▁Over	-13.7133
▁March	-13.7133
▁Pig	-13.7133
▁desperately	-13.7133
▁Sleepy	-13.7134
▁Jennie	-13.7134
▁Gilly	-13.7134
▁swaying	-13.7135
▁croaked	-13.7135
▁swapp	-13.7145
▁applauding	-13.7151
▁Soap	-13.7174
Ooh	-13.7217
▁pre	-13.722
▁swimsuits	-13.724
▁cupcake	-13.731
▁sometime	-13.7337
ani	-13.7365
▁Us	-13.7373
▁smash	-13.7375
Eat	-13.7375
▁praise	-13.7375
dog	-13.7376
how	-13.7376
▁unload	-13.7376
▁Annabelle	-13.7376
▁Apple	-13.7376
▁Flopsy	-13.7376
▁Hank	-13.7376
▁Martin	-13.7376
▁Sunshine	-13.7376
▁common	-13.7376
▁experiment	-13.7376
▁grasshopper	-13.7376
▁nudge	-13.7376
▁popsicle	-13.7376
▁Andrew	-13.7377
▁Nate	-13.7377
▁luckily	-13.7377
▁concerned	-13.7377
▁shimmering	-13.7377
▁Starry	-13.7377
▁moonlight	-13.7377
▁Tip	-13.7378
▁Excitedly	-13.7378
▁reappeared	-13.7378
▁underwater	-13.7379
▁attacked	-13.738
▁Carla	-13.7384
▁Liam	-13.7394
▁bending	-13.7405
▁''	-13.7452
▁dryer	-13.7473
▁bill	-13.7535
▁seeking	-13.7543
▁bo	-13.7566
gr	-13.7583
▁dripp	-13.7583
Z	-13.7625
X	-13.7625
Ella	-13.7625
▁Rub	-13.7626
▁crunch	-13.7626
▁Bruce	-13.7626
▁Chip	-13.7626
▁Duke	-13.7626
▁Gemma	-13.7626
▁Horsy	-13.7626
▁Last	-13.7626
▁Olivia	-13.7626
▁applause	-13.7626
▁biscuit	-13.7626
▁fireflies	-13.7626
▁flavour	-13.7626
▁magnif	-13.7626
▁otherwise	-13.7626
▁reversing	-13.7626
▁saxophone	-13.7626
▁security	-13.7626
▁sandpit	-13.7626
▁shallow	-13.7627
▁Paint	-13.7627
▁Tippy	-13.7627
▁roam	-13.7627
▁Oink	-13.7627
▁appearance	-13.7627
▁sniffled	-13.7627
▁Old	-13.7627
▁popping	-13.7627
▁Slow	-13.7627
▁recommendation	-13.7627
▁Turn	-13.7627
▁baa	-13.7627
▁snapping	-13.7627
▁whimpered	-13.7628
▁Nicky	-13.763
▁Nora	-13.7631
▁quacking	-13.764
▁signal	-13.7647
▁petting	-13.7661
▁Soar	-13.7669
▁questioned	-13.7674
▁levers	-13.7685
▁numbered	-13.7715
▁strokes	-13.7717
Bu	-13.773
▁Che	-13.7798
▁sm	-13.781
▁bruise	-13.7817
Four	-13.7821
fived	-13.7873
▁yelp	-13.7881
▁dodge	-13.7882
Want	-13.7882
▁scene	-13.7883
▁Flap	-13.7883
▁Again	-13.7883
▁Ernie	-13.7883
▁Feel	-13.7883
▁Horsie	-13.7883
▁Lightning	-13.7883
▁Sandra	-13.7883
▁ability	-13.7883
▁astonished	-13.7883
▁bubbling	-13.7883
▁expert	-13.7883
▁exploration	-13.7883
▁horrible	-13.7883
▁quest	-13.7883
▁quizzes	-13.7883
▁robin	-13.7883
▁smelt	-13.7883
▁survive	-13.7883
▁plum	-13.7883
▁Libby	-13.7883
▁Things	-13.7883
▁noticing	-13.7883
▁scenery	-13.7883
Caw	-13.7883
▁correctly	-13.7883
Playing	-13.7883
▁exploded	-13.7884
▁prickly	-13.7884
▁Patches	-13.7884
▁chilly	-13.7884
this	-13.7885
▁formed	-13.7887
▁crowded	-13.7889
▁Jam	-13.7892
▁coughing	-13.7893
▁beating	-13.7897
ounded	-13.7898
▁writer	-13.7904
▁offering	-13.7912
▁explaining	-13.7925
▁unwrapp	-13.7936
▁burgers	-13.7959
Mix	-13.7991
▁answering	-13.7992
▁mailing	-13.7996
moo	-13.8002
raw	-13.8031
house	-13.8046
love	-13.8074
▁member	-13.808
▁instrument	-13.808
▁unwrap	-13.8092
iness	-13.8106
▁Mac	-13.8134
Ra	-13.8137
▁sway	-13.8142
Fred	-13.8145
▁certain	-13.8145
▁prick	-13.8145
espect	-13.8146
`	-13.8146
▁Oxy	-13.8146
▁behaviour	-13.8146
▁discouraged	-13.8146
▁gulp	-13.8146
▁hummed	-13.8146
▁imagina	-13.8146
▁overwhelmed	-13.8146
▁peeped	-13.8146
▁pollen	-13.8146
▁salon	-13.8146
▁sleeve	-13.8146
/	-13.8146
▁Books	-13.8146
▁Breezy	-13.8146
▁pouch	-13.8146
▁Tidy	-13.8146
▁juggle	-13.8146
▁Dragon	-13.8146
▁Rara	-13.8146
▁Pep	-13.8146
▁Right	-13.8147
▁Tooth	-13.8147
▁CD	-13.8147
▁discoveries	-13.8147
▁Math	-13.8147
▁Ellen	-13.8147
▁whined	-13.8149
▁Open	-13.8149
▁Choo	-13.8149
▁mooed	-13.8149
▁ostriches	-13.8151
▁Run	-13.8154
ja	-13.8178
Momo	-13.8208
▁Alan	-13.8229
▁deeply	-13.8245
ana	-13.8283
Sh	-13.8294
kin	-13.8304
Free	-13.8361
▁Was	-13.8409
▁neigh	-13.8414
▁thrill	-13.8414
repeat	-13.8415
Emma	-13.8415
poison	-13.8415
Nothing	-13.8415
▁cautious	-13.8416
▁grace	-13.8416
▁attract	-13.8416
▁Jeremy	-13.8416
▁Juice	-13.8416
▁Magnet	-13.8416
▁Panda	-13.8416
▁Worry	-13.8416
▁activity	-13.8416
▁bolt	-13.8416
▁braid	-13.8416
▁condition	-13.8416
▁cruel	-13.8416
▁gooey	-13.8416
▁heaven	-13.8416
▁hesitation	-13.8416
▁injured	-13.8416
▁mysteries	-13.8416
▁peacock	-13.8416
▁routine	-13.8416
▁skies	-13.8416
▁striking	-13.8416
▁twelve	-13.8416
▁hint	-13.8416
▁Black	-13.8416
▁Teach	-13.8416
▁clutch	-13.8416
▁Johnson	-13.8416
▁Clean	-13.8417
▁racers	-13.8417
▁chatting	-13.8417
▁Reddy	-13.8417
▁Very	-13.842
▁mayor	-13.8421
▁deserved	-13.8422
▁guesses	-13.8424
▁shaker	-13.8439
▁attaching	-13.8463
▁oldest	-13.8497
ears	-13.8499
ger	-13.8508
▁spice	-13.8628
inner	-13.8632
unk	-13.8647
▁respond	-13.8692
▁echo	-13.8692
Climb	-13.8693
okay	-13.8693
shrink	-13.8693
Zip	-13.8693
Bobby	-13.8693
▁express	-13.8694
Abracadabra	-13.8694
bsolutely	-13.8694
▁Law	-13.8694
▁Mighty	-13.8694
▁Peggy	-13.8694
▁Violet	-13.8694
▁angrier	-13.8694
▁concentrat	-13.8694
▁conquered	-13.8694
▁details	-13.8694
▁frustration	-13.8694
▁grunt	-13.8694
▁lifeguard	-13.8694
▁opportunity	-13.8694
▁progress	-13.8694
▁satisfaction	-13.8694
▁stalk	-13.8694
▁woodpecker	-13.8694
▁electricity	-13.8694
▁pace	-13.8694
▁Boat	-13.8694
▁Shake	-13.8694
▁Dilly	-13.8694
▁instantly	-13.8694
▁Coffee	-13.8695
▁crushed	-13.8695
▁Flicker	-13.8695
▁certainly	-13.8695
▁Thankfully	-13.8695
▁snorted	-13.8697
▁finishes	-13.871
▁calmer	-13.8724
ening	-13.8734
▁leaking	-13.8735
▁goodies	-13.8774
▁sweeter	-13.879
Rock	-13.8898
▁passenger	-13.8914
▁material	-13.8914
▁lever	-13.8915
▁visitor	-13.8935
▁Su	-13.8955
▁defeat	-13.8978
▁fright	-13.898
▁scrunch	-13.898
Surrender	-13.898
▁Colin	-13.898
▁Confused	-13.898
▁Jennifer	-13.898
▁Step	-13.898
▁antlers	-13.898
▁coconut	-13.898
▁confusion	-13.898
▁disaster	-13.898
▁fuss	-13.898
▁intently	-13.898
▁melody	-13.898
▁reunited	-13.898
▁screech	-13.898
▁sleigh	-13.898
▁sobbing	-13.898
▁souvenir	-13.898
▁sunscreen	-13.898
▁troll	-13.898
▁veggies	-13.898
▁bundle	-13.898
▁seashell	-13.898
▁Peace	-13.898
▁healthier	-13.898
▁jingle	-13.898
▁Tessa	-13.898
▁Peek	-13.898
▁Sweet	-13.8981
▁swayed	-13.8982
▁flipper	-13.8984
Isn	-13.8985
▁messier	-13.8985
▁softened	-13.8986
▁Stu	-13.899
▁rattle	-13.899
▁weaker	-13.9012
bu	-13.902
▁hissing	-13.9093
ridge	-13.9098
Five	-13.9158
▁Bi	-13.9179
▁faith	-13.9205
▁snowflake	-13.9208
▁din	-13.926
▁cluck	-13.9272
Baa	-13.9272
Close	-13.9272
▁blame	-13.9273
▁chill	-13.9273
Q	-13.9274
▁Albert	-13.9274
▁Giant	-13.9274
▁Hurricane	-13.9274
▁Sugar	-13.9274
▁allergic	-13.9274
▁binoculars	-13.9274
▁distract	-13.9274
▁embrace	-13.9274
▁lullaby	-13.9274
▁snoring	-13.9274
▁strap	-13.9274
▁unfamiliar	-13.9274
▁glisten	-13.9274
▁narrow	-13.9274
▁groom	-13.9274
▁peak	-13.9274
▁wig	-13.9274
▁Leah	-13.9274
▁Broccoli	-13.9274
▁blur	-13.9274
▁tickling	-13.9274
▁Sad	-13.9274
▁Spicy	-13.9275
▁host	-13.9275
▁Cake	-13.9275
▁Tuck	-13.9275
▁rotted	-13.9275
▁glittered	-13.9282
▁snug	-13.9284
Drink	-13.9284
▁hunting	-13.9284
▁larger	-13.9294
▁bumping	-13.9295
▁Inch	-13.9322
ible	-13.9511
▁continu	-13.9571
2	-13.9575
Say	-13.9575
Grandpa	-13.9575
Tiny	-13.9575
▁desperate	-13.9576
▁Pink	-13.9577
▁Africa	-13.9577
▁Carefully	-13.9577
▁Dylan	-13.9577
▁Officer	-13.9577
▁Otherwise	-13.9577
▁Prune	-13.9577
▁Purple	-13.9577
▁Raven	-13.9577
▁Riley	-13.9577
▁Timothy	-13.9577
▁awhile	-13.9577
▁completing	-13.9577
▁disagreement	-13.9577
▁enemy	-13.9577
▁granddaughter	-13.9577
▁lava	-13.9577
▁obstacle	-13.9577
▁rebuild	-13.9577
▁rectangle	-13.9577
▁roast	-13.9577
▁temptation	-13.9577
▁tugging	-13.9577
▁wheelbarrow	-13.9577
▁Socky	-13.9577
Push	-13.9577
▁report	-13.9577
▁Jade	-13.9577
▁Glow	-13.9577
▁Spider	-13.9577
▁Iron	-13.9577
▁4	-13.9577
▁hike	-13.9578
▁pounced	-13.9578
▁whipped	-13.9578
▁hovering	-13.9579
▁rinsed	-13.9579
▁dirtier	-13.958
Woo	-13.9581
▁Hug	-13.959
haw	-13.9594
▁loser	-13.9595
▁coolest	-13.96
▁seriously	-13.9606
▁richer	-13.9608
▁warmest	-13.9624
!'"	-13.9626
▁rider	-13.9642
Ta	-13.9646
▁magically	-13.9656
Move	-13.9699
▁Friend	-13.9824
ship	-13.9872
▁realiz	-13.9877
Play	-13.9886
Tomorrow	-13.9888
Two	-13.9888
▁Tess	-13.9889
▁recover	-13.9889
▁Carol	-13.9889
▁Hook	-13.9889
▁Mamma	-13.9889
▁Pebby	-13.9889
▁Slinky	-13.9889
▁companion	-13.9889
▁enclosure	-13.9889
▁intelligence	-13.9889
▁pleasant	-13.9889
▁responsibility	-13.9889
▁royal	-13.9889
▁wiggling	-13.9889
▁Rosa	-13.9889
▁thirty	-13.9889
Foun	-13.9889
▁hips	-13.9889
▁sensation	-13.9889
▁Joanna	-13.9889
▁Kenny	-13.9889
▁Stanley	-13.9889
▁whiskers	-13.989
▁Isabella	-13.989
▁wax	-13.989
▁Park	-13.989
▁Woolly	-13.989
▁guardian	-13.989
▁uncovered	-13.989
▁halfway	-13.989
▁Sail	-13.989
▁Wake	-13.9893
▁ashes	-13.9894
▁Girl	-13.9899
▁hatched	-13.9899
▁successfully	-13.9923
▁crumble	-14.0066
▁cracker	-14.0164
Clap	-14.018
azing	-14.0194
saw	-14.0197
▁stor	-14.02
keeper	-14.0206
▁whe	-14.0209
▁fail	-14.021
smelling	-14.0211
Lulu	-14.0211
Uncle	-14.0211
colored	-14.0211
shirt	-14.0211
Fish	-14.0211
▁plea	-14.0212
▁April	-14.0212
▁Bruno	-14.0212
▁Chuck	-14.0212
▁Gwen	-14.0212
▁Joseph	-14.0212
▁Marley	-14.0212
▁Patrick	-14.0212
▁Worm	-14.0212
▁antenna	-14.0212
▁canvas	-14.0212
▁clam	-14.0212
▁code	-14.0212
▁dashed	-14.0212
▁devastated	-14.0212
▁equal	-14.0212
▁foggy	-14.0212
▁furious	-14.0212
▁heavily	-14.0212
▁invisible	-14.0212
▁launch	-14.0212
▁niece	-14.0212
▁oars	-14.0212
▁process	-14.0212
▁recess	-14.0212
▁shattered	-14.0212
▁sleepover	-14.0212
▁slime	-14.0212
▁vinegar	-14.0212
▁restoring	-14.0212
▁spare	-14.0212
▁Caroline	-14.0212
▁crouch	-14.0212
▁Greg	-14.0212
NG	-14.0212
▁High	-14.0212
▁slot	-14.0212
▁allowance	-14.0212
Ahh	-14.0213
▁Nelly	-14.0213
▁glided	-14.0213
▁Race	-14.0213
▁risky	-14.0213
ouch	-14.0214
▁cherished	-14.0214
▁charged	-14.0216
▁blend	-14.0218
▁Liza	-14.0219
▁trailer	-14.0225
▁container	-14.0237
▁Achoo	-14.024
Cool	-14.0272
▁Un	-14.0335
▁Stand	-14.0344
▁Sharp	-14.0407
Sit	-14.0422
▁speaker	-14.0435
▁snuggl	-14.0534
look	-14.0542
▁cherish	-14.0544
▁squeal	-14.0544
▁wriggl	-14.0544
surrender	-14.0544
▁Fluff	-14.0544
print	-14.0545
▁consider	-14.0545
▁Crocodile	-14.0545
▁Fizzy	-14.0545
▁Kelsey	-14.0545
▁Margaret	-14.0545
▁Potato	-14.0545
▁THE	-14.0545
▁achievement	-14.0545
▁babysitter	-14.0545
▁caution	-14.0545
▁conductor	-14.0545
▁cucumber	-14.0545
▁deciding	-14.0545
▁energetic	-14.0545
▁glance	-14.0545
▁glint	-14.0545
▁magnificent	-14.0545
▁mashed	-14.0545
▁oatmeal	-14.0545
▁soothing	-14.0545
▁vibrant	-14.0545
POP	-14.0545
▁ankle	-14.0545
▁villain	-14.0545
▁wilt	-14.0545
Grab	-14.0545
Reverse	-14.0545
▁Barb	-14.0546
▁goggles	-14.0546
▁Mick	-14.0546
▁snarled	-14.0546
▁Willow	-14.0547
▁sly	-14.0549
▁joyfully	-14.0549
▁loyalty	-14.055
▁protection	-14.055
▁puffed	-14.055
port	-14.055
▁outcome	-14.0556
▁squashes	-14.0557
Red	-14.0557
▁runny	-14.0565
Li	-14.0567
▁Sly	-14.0567
▁wetter	-14.0578
▁mate	-14.0603
ask	-14.0707
rth	-14.0708
Ten	-14.0728
Fl	-14.0749
utter	-14.0777
1	-14.0889
Enjoy	-14.0889
Frog	-14.0889
guess	-14.0889
Everyone	-14.0889
sorry	-14.0889
Jim	-14.0889
Ray	-14.089
▁squi	-14.089
▁gallop	-14.089
▁Carrot	-14.089
▁Club	-14.089
▁Feather	-14.089
▁Flame	-14.089
▁Jasmine	-14.089
▁Spanish	-14.089
▁Square	-14.089
▁Summer	-14.089
▁Triangle	-14.089
▁Wonder	-14.089
▁daily	-14.089
▁floppy	-14.089
▁hopscotch	-14.089
▁inseparable	-14.089
▁keen	-14.089
▁level	-14.089
▁lilies	-14.089
▁lush	-14.089
▁majestic	-14.089
▁possibilities	-14.089
▁seahorse	-14.089
▁silk	-14.089
▁spiky	-14.089
▁spooky	-14.089
▁toothpaste	-14.089
▁frightening	-14.089
▁route	-14.089
▁Infant	-14.089
▁Claw	-14.089
▁Fix	-14.089
▁Part	-14.089
▁Scissors	-14.0891
reme	-14.0891
Eww	-14.0891
▁drowned	-14.0891
▁Graceful	-14.0891
▁Angela	-14.0891
▁Coal	-14.0892
▁defeated	-14.0892
▁silently	-14.0893
▁scrape	-14.0895
▁Zoomie	-14.0896
llowing	-14.0897
▁stained	-14.0897
▁Onion	-14.0904
▁auntie	-14.0911
▁na	-14.0913
▁stretchy	-14.0923
run	-14.1023
Ann	-14.1072
Jo	-14.1148
Hide	-14.1188
▁impress	-14.1245
▁whimper	-14.1245
5	-14.1246
wait	-14.1246
Aunt	-14.1246
clock	-14.1246
bang	-14.1246
▁yuck	-14.1246
Make	-14.1247
▁Twist	-14.1247
▁Isabel	-14.1247
▁Claus	-14.1247
▁Jemma	-14.1247
▁Jonathan	-14.1247
▁Pastel	-14.1247
▁Pinchy	-14.1247
▁Rhythm	-14.1247
▁Whip	-14.1247
▁aloud	-14.1247
▁chili	-14.1247
▁competing	-14.1247
▁current	-14.1247
▁disgusted	-14.1247
▁harmony	-14.1247
▁harvest	-14.1247
▁lantern	-14.1247
▁organised	-14.1247
▁overhead	-14.1247
▁platform	-14.1247
▁section	-14.1247
▁shaky	-14.1247
▁transformed	-14.1247
▁urging	-14.1247
▁Josie	-14.1247
▁detective	-14.1247
▁dumb	-14.1247
▁aroma	-14.1247
▁Clare	-14.1247
▁coast	-14.1247
▁Croco	-14.1247
▁wanna	-14.1247
▁luckiest	-14.1248
▁Rory	-14.1248
▁scowled	-14.1248
▁Land	-14.1248
▁Joan	-14.1248
▁Cora	-14.1248
▁Sean	-14.1249
▁cooed	-14.1249
Benny	-14.1249
▁Year	-14.125
▁Eve	-14.125
▁disobeyed	-14.125
▁squawked	-14.1251
▁Isla	-14.1251
▁Steven	-14.1254
▁Silly	-14.1258
▁challenged	-14.126
▁panting	-14.127
arriage	-14.128
ative	-14.1281
Aw	-14.1283
▁Kai	-14.1315
▁mindful	-14.1316
▁Boy	-14.1319
▁designer	-14.1328
▁surfer	-14.1371
Bubble	-14.1372
▁Ken	-14.152
tealing	-14.1547
▁scar	-14.1559
flower	-14.161
box	-14.1613
▁incredibl	-14.1614
Duck	-14.1616
▁hover	-14.1616
Sweet	-14.1616
Sleep	-14.1616
Jerry	-14.1616
Poppy	-14.1616
Splash	-14.1616
Star	-14.1616
Twinkle	-14.1616
value	-14.1616
▁Nell	-14.1617
Squeeze	-14.1618
▁Instantly	-14.1618
▁Lady	-14.1618
▁Lexi	-14.1618
▁Lucas	-14.1618
▁Minnie	-14.1618
▁cheesy	-14.1618
▁device	-14.1618
▁dustpan	-14.1618
▁fifty	-14.1618
▁horror	-14.1618
▁plop	-14.1618
▁reassuring	-14.1618
▁rooster	-14.1618
▁smoking	-14.1618
Repeat	-14.1618
▁Stripe	-14.1618
▁sparrow	-14.1618
▁stiff	-14.1618
▁stinky	-14.1618
▁Friendship	-14.1618
▁blob	-14.1618
▁Peach	-14.1618
▁globe	-14.1618
▁Nia	-14.1618
Writing	-14.1618
▁panicking	-14.1618
▁courageous	-14.1618
▁Pizza	-14.1619
▁Flop	-14.1619
▁arrested	-14.1619
▁patting	-14.162
▁None	-14.1621
▁strolled	-14.1621
▁confidently	-14.1621
▁boiling	-14.1622
▁Mop	-14.1622
▁glittery	-14.1623
▁Winky	-14.1625
▁Nap	-14.1654
▁Zeb	-14.1678
Zoo	-14.169
▁rec	-14.1736
▁Fun	-14.1758
▁Bub	-14.1871
▁Vi	-14.1912
where	-14.1975
Owl	-14.199
▁reappear	-14.2
Promise	-14.2001
Bessie	-14.2001
goodbye	-14.2001
Mary	-14.2001
back	-14.2002
▁dart	-14.2002
▁Ashtray	-14.2002
▁Bernie	-14.2002
▁Crusty	-14.2002
▁Furry	-14.2002
▁Honest	-14.2002
▁Nature	-14.2002
▁dedication	-14.2002
▁frisbee	-14.2002
▁funniest	-14.2002
▁indoors	-14.2002
▁peculiar	-14.2002
▁rubbish	-14.2002
▁science	-14.2002
▁separating	-14.2002
▁tortoise	-14.2002
▁unkind	-14.2002
Hooray	-14.2002
▁Deaf	-14.2002
▁Kanga	-14.2002
▁hamster	-14.2002
▁managing	-14.2002
▁nanny	-14.2002
▁Mickey	-14.2002
▁crispy	-14.2003
▁Whale	-14.2003
▁Dusty	-14.2003
▁Kyle	-14.2004
Throw	-14.2006
▁clothesline	-14.2006
▁passion	-14.2007
Birdy	-14.2008
▁Greeny	-14.201
▁crosses	-14.2017
Walk	-14.2019
▁coo	-14.2125
▁Rod	-14.2133
ummy	-14.2179
hop	-14.2237
Her	-14.2288
▁Tea	-14.2291
▁qu	-14.2322
▁Far	-14.2336
▁valu	-14.2396
▁Spin	-14.2399
▁arrang	-14.24
Bug	-14.2401
master	-14.2401
▁convince	-14.2401
Rain	-14.2401
8	-14.2402
▁Aaron	-14.2402
▁Loyal	-14.2402
▁Monica	-14.2402
▁compromise	-14.2402
▁fond	-14.2402
▁halves	-14.2402
▁hollow	-14.2402
▁honeycomb	-14.2402
▁jaws	-14.2402
▁jiggle	-14.2402
▁mesmerised	-14.2402
▁microwave	-14.2402
▁preschool	-14.2402
▁principal	-14.2402
▁quilt	-14.2402
▁seatbelt	-14.2402
▁surge	-14.2402
▁whirl	-14.2402
Children	-14.2402
▁daddies	-14.2402
▁prefer	-14.2402
▁savor	-14.2402
▁swish	-14.2402
▁Bibo	-14.2402
▁Heidi	-14.2402
▁Ivy	-14.2402
▁Octo	-14.2402
▁headache	-14.2402
▁Dull	-14.2402
▁Mars	-14.2402
▁solid	-14.2402
School	-14.2402
Careful	-14.2402
▁Winter	-14.2403
▁Think	-14.2403
▁undo	-14.2403
▁Nei	-14.2403
▁communicate	-14.2403
▁Believe	-14.2403
▁poisonous	-14.2403
▁Gia	-14.2403
▁stroller	-14.2403
▁sixty	-14.2404
▁Promise	-14.2404
▁Sid	-14.2404
rious	-14.2405
▁Mumma	-14.2405
▁Freeze	-14.2405
▁untangled	-14.2405
Flower	-14.2406
▁Anty	-14.2408
▁avoided	-14.241
▁anybody	-14.2411
▁Cocoa	-14.2411
▁pitcher	-14.2412
▁arch	-14.2414
▁purring	-14.2415
▁hunger	-14.2418
now	-14.2443
▁huddle	-14.2484
rrow	-14.2535
▁delightful	-14.2634
▁lace	-14.2753
▁introduc	-14.2814
Everything	-14.2818
From	-14.2818
Show	-14.2818
Slow	-14.2818
▁Rick	-14.2818
Snowy	-14.2818
▁whisk	-14.2819
Anything	-14.2819
Yield	-14.2819
▁Audrey	-14.2819
▁Carrie	-14.2819
▁blossom	-14.2819
▁chunk	-14.2819
▁command	-14.2819
▁cuddling	-14.2819
▁liar	-14.2819
▁option	-14.2819
▁pineapple	-14.2819
▁porridge	-14.2819
▁scaly	-14.2819
▁scrubbing	-14.2819
▁sizzle	-14.2819
▁sturdy	-14.2819
▁townspeople	-14.2819
▁Mild	-14.2819
▁crust	-14.2819
▁slurp	-14.2819
▁Spinny	-14.2819
▁ruffled	-14.2819
▁mound	-14.2819
Anytime	-14.2819
▁ooh	-14.2819
Marry	-14.2819
▁till	-14.2819
▁Jellyfish	-14.2819
▁cock	-14.2819
▁Hugo	-14.2819
▁Kara	-14.2819
▁Oxygen	-14.282
▁payoff	-14.282
▁unfolded	-14.282
▁Value	-14.282
▁million	-14.2823
▁Roy	-14.2823
▁Billie	-14.2824
▁Down	-14.2825
▁brightened	-14.2825
▁riches	-14.2889
▁Emi	-14.2971
Stir	-14.3001
two	-14.3019
iva	-14.3124
Poo	-14.3126
▁ga	-14.32
▁Bro	-14.3202
come	-14.3211
▁Blu	-14.325
Snow	-14.3251
▁glimmer	-14.3252
Miss	-14.3252
Snap	-14.3252
Buzz	-14.3252
Even	-14.3252
oxygen	-14.3252
why	-14.3252
▁timid	-14.3253
▁proper	-14.3253
▁Play	-14.3254
▁compass	-14.3254
Congratulations	-14.3254
Volcano	-14.3254
▁Alfred	-14.3254
▁Arthur	-14.3254
▁Crystal	-14.3254
▁Ethan	-14.3254
▁Frustrated	-14.3254
▁Greta	-14.3254
▁Hilda	-14.3254
▁Hippo	-14.3254
▁Jellie	-14.3254
▁Learn	-14.3254
▁Melody	-14.3254
▁Mustache	-14.3254
▁Nathan	-14.3254
▁Sisi	-14.3254
▁Surprised	-14.3254
▁Swimmy	-14.3254
▁begun	-14.3254
▁centre	-14.3254
▁challenging	-14.3254
▁clover	-14.3254
▁collage	-14.3254
▁doubt	-14.3254
▁gorgeous	-14.3254
▁mischief	-14.3254
▁necessary	-14.3254
▁presence	-14.3254
▁reckless	-14.3254
▁riddle	-14.3254
▁slightly	-14.3254
▁tempting	-14.3254
▁terribly	-14.3254
▁throne	-14.3254
▁uniting	-14.3254
▁Susy	-14.3254
▁pantry	-14.3254
▁Bull	-14.3254
▁defend	-14.3254
▁oink	-14.3254
Swan	-14.3254
▁chopping	-14.3254
▁practised	-14.3254
▁bait	-14.3254
▁interrupted	-14.3254
▁sniffling	-14.3254
▁jogger	-14.3254
Butterfly	-14.3255
▁digger	-14.3255
▁Twisty	-14.3255
▁Tap	-14.3255
▁mold	-14.3255
▁Noah	-14.3256
▁Climbing	-14.3256
▁neighed	-14.3257
▁Heart	-14.3259
▁Mill	-14.3259
opera	-14.3398
▁War	-14.3562
lack	-14.3588
pri	-14.3595
▁raindrop	-14.3642
▁ingredient	-14.3643
▁Lemon	-14.366
▁nibbl	-14.3695
good	-14.3707
maker	-14.3707
Polly	-14.3707
Jenny	-14.3707
▁pounce	-14.3707
▁fluff	-14.3707
Pip	-14.3708
▁favor	-14.3708
▁electric	-14.3708
6	-14.3708
▁smudg	-14.3708
▁swat	-14.3708
Chocolate	-14.3708
alfway	-14.3708
▁Brooke	-14.3708
▁Brush	-14.3708
▁Crane	-14.3708
▁Flea	-14.3708
▁Pebble	-14.3708
▁Taylor	-14.3708
▁Ugly	-14.3708
▁blessing	-14.3708
▁commotion	-14.3708
▁concert	-14.3708
▁console	-14.3708
▁damp	-14.3708
▁disguise	-14.3708
▁eyeshadow	-14.3708
▁gruff	-14.3708
▁improving	-14.3708
▁injuries	-14.3708
▁mushy	-14.3708
▁produce	-14.3708
▁raisins	-14.3708
▁smoky	-14.3708
▁tentacles	-14.3708
▁thunderstorm	-14.3708
▁trudge	-14.3708
▁twitched	-14.3708
▁Alarm	-14.3708
▁Cami	-14.3708
▁exist	-14.3708
▁Toast	-14.3708
▁Winnie	-14.3708
▁JoJo	-14.3708
▁Father	-14.3708
Change	-14.3709
▁Richard	-14.3709
Smile	-14.3709
▁Mind	-14.3709
Beware	-14.3709
▁poop	-14.3709
▁shimmered	-14.3709
▁Number	-14.3709
▁Button	-14.3709
▁lunchbox	-14.3709
▁discussion	-14.371
▁wasteful	-14.371
▁Wind	-14.3711
▁clucked	-14.3711
▁joyous	-14.3712
▁gentleman	-14.3713
law	-14.3714
room	-14.3715
▁hoof	-14.3721
Left	-14.3749
Zebra	-14.4109
▁squish	-14.4182
turn	-14.4183
Baby	-14.4183
With	-14.4183
▁explode	-14.4183
▁glide	-14.4183
▁react	-14.4184
Jen	-14.4184
9	-14.4185
Spaghetti	-14.4185
talkie	-14.4185
▁Caterpillar	-14.4185
▁Elizabeth	-14.4185
▁Gorilla	-14.4185
▁Jelly	-14.4185
▁Layla	-14.4185
▁Needle	-14.4185
▁Patient	-14.4185
▁Pirate	-14.4185
▁Shrimp	-14.4185
▁Stephen	-14.4185
▁buddies	-14.4185
▁dries	-14.4185
▁emergencies	-14.4185
▁excuse	-14.4185
▁firewood	-14.4185
▁fist	-14.4185
▁glimpse	-14.4185
▁innocent	-14.4185
▁involve	-14.4185
▁kettle	-14.4185
▁plus	-14.4185
▁quality	-14.4185
▁shame	-14.4185
▁trophies	-14.4185
▁Alfie	-14.4185
▁Avery	-14.4185
▁calf	-14.4185
▁champion	-14.4185
▁partner	-14.4185
Poison	-14.4185
▁Rosy	-14.4185
Honk	-14.4185
▁Carlos	-14.4185
▁Rani	-14.4185
▁lobby	-14.4185
▁reaction	-14.4185
▁spinner	-14.4185
▁workshop	-14.4185
Lunch	-14.4185
▁East	-14.4185
▁snipped	-14.4185
▁Anya	-14.4185
▁Climb	-14.4185
▁Manny	-14.4185
▁spied	-14.4185
Use	-14.4185
▁pail	-14.4185
▁snore	-14.4185
▁Gail	-14.4185
▁adventurers	-14.4185
▁fulfilled	-14.4186
▁repairman	-14.4186
▁Windy	-14.4186
▁squirmed	-14.4186
Sitting	-14.4187
▁Bebe	-14.4187
▁securely	-14.4188
▁painful	-14.4188
Pull	-14.4193
▁saddle	-14.4204
cket	-14.4256
▁faithful	-14.4298
▁pucker	-14.4342
Gas	-14.4438
▁Jin	-14.4446
coming	-14.4659
▁mast	-14.4669
hearted	-14.4677
▁fool	-14.4683
▁accomplish	-14.4683
▁arrest	-14.4683
▁tilt	-14.4683
Value	-14.4683
Tell	-14.4683
Alice	-14.4683
True	-14.4683
yield	-14.4683
three	-14.4683
▁grumble	-14.4683
Toby	-14.4683
Pick	-14.4683
Fun	-14.4684
Cow	-14.4684
▁Read	-14.4684
Ducky	-14.4684
tumbling	-14.4685
▁perk	-14.4685
▁Agnes	-14.4685
▁Becca	-14.4685
▁Bossy	-14.4685
▁Bury	-14.4685
▁Celia	-14.4685
▁Chomp	-14.4685
▁Cream	-14.4685
▁Flexible	-14.4685
▁Guard	-14.4685
▁Harold	-14.4685
▁Hoop	-14.4685
▁Kindness	-14.4685
▁Lillie	-14.4685
▁Milk	-14.4685
▁Novel	-14.4685
▁Small	-14.4685
▁banner	-14.4685
▁cabbage	-14.4685
▁community	-14.4685
▁construct	-14.4685
▁diligently	-14.4685
▁flush	-14.4685
▁grandkids	-14.4685
▁handlebars	-14.4685
▁honor	-14.4685
▁independence	-14.4685
▁juicie	-14.4685
▁product	-14.4685
▁pudding	-14.4685
▁replies	-14.4685
▁rhyme	-14.4685
▁shuffl	-14.4685
▁tulip	-14.4685
▁ungrateful	-14.4685
▁wavy	-14.4685
▁witness	-14.4685
▁wobbling	-14.4685
▁adjust	-14.4685
▁theatre	-14.4685
▁scarier	-14.4685
▁Janice	-14.4685
▁considerate	-14.4685
▁Cub	-14.4685
▁trace	-14.4685
Six	-14.4685
▁threatened	-14.4685
▁Cody	-14.4685
▁donut	-14.4685
▁ninety	-14.4685
▁seventy	-14.4685
▁carrier	-14.4686
▁Louie	-14.4686
▁skinny	-14.4686
▁Tad	-14.4687
zag	-14.4875
▁Swi	-14.5117
▁Napp	-14.516
water	-14.5205
wine	-14.5208
▁groan	-14.5209
Mind	-14.5209
Match	-14.5209
People	-14.5209
Peter	-14.5209
Susie	-14.5209
crack	-14.5209
down	-14.5209
friend	-14.521
▁reflect	-14.5211
▁direct	-14.5211
▁Bud	-14.5211
▁Night	-14.5211
Patience	-14.5211
erhaps	-14.5211
é	-14.5211
▁Alicia	-14.5211
▁Bright	-14.5211
▁Contest	-14.5211
▁Dictionary	-14.5211
▁Garry	-14.5211
▁Gloria	-14.5211
▁Guppy	-14.5211
▁House	-14.5211
▁Hunter	-14.5211
▁Kathy	-14.5211
▁Knot	-14.5211
▁Marcy	-14.5211
▁Michelle	-14.5211
▁Money	-14.5211
▁Orange	-14.5211
▁Rudolph	-14.5211
▁Spoon	-14.5211
▁Thermometer	-14.5211
▁Tracy	-14.5211
▁Trixie	-14.5211
▁boast	-14.5211
▁chief	-14.5211
▁cigarette	-14.5211
▁creepy	-14.5211
▁diaper	-14.5211
▁dishonest	-14.5211
▁divide	-14.5211
▁dodging	-14.5211
▁eleven	-14.5211
▁exercising	-14.5211
▁fifteen	-14.5211
▁gnome	-14.5211
▁horrified	-14.5211
▁insistent	-14.5211
▁length	-14.5211
▁lurking	-14.5211
▁overflowing	-14.5211
▁potential	-14.5211
▁private	-14.5211
▁protest	-14.5211
▁resolved	-14.5211
▁sentence	-14.5211
▁strict	-14.5211
▁tablecloth	-14.5211
▁thousand	-14.5211
▁tiring	-14.5211
▁unison	-14.5211
▁wicked	-14.5211
▁Word	-14.5211
▁speck	-14.5211
▁stumbling	-14.5211
▁Lime	-14.5211
▁pals	-14.5211
▁reins	-14.5211
▁Heather	-14.5211
▁20	-14.5211
▁Brother	-14.5211
Plane	-14.5211
▁invention	-14.5211
▁Cozy	-14.5211
▁Snowball	-14.5211
▁harmful	-14.5211
▁Biff	-14.5211
▁bullet	-14.5211
▁Shop	-14.5211
▁deck	-14.5212
▁Beak	-14.5212
▁Bath	-14.5212
▁timidly	-14.5212
▁bun	-14.5237
▁state	-14.528
spected	-14.5314
NO	-14.5347
▁Tick	-14.5395
eight	-14.5532
▁character	-14.57
oreshadowing	-14.5751
May	-14.5765
Doctor	-14.5765
Water	-14.5765
Pat	-14.5765
six	-14.5765
jump	-14.5765
Tina	-14.5765
▁greed	-14.5765
▁guilt	-14.5765
▁correct	-14.5766
▁scoot	-14.5766
▁repa	-14.5766
▁daydream	-14.5766
aughter	-14.5766
▁Alison	-14.5766
▁Benjamin	-14.5766
▁Brave	-14.5766
▁Edward	-14.5766
▁Eraser	-14.5766
▁Ginny	-14.5766
▁Goldie	-14.5766
▁Hanger	-14.5766
▁Marcus	-14.5766
▁Margo	-14.5766
▁Measure	-14.5766
▁Muffy	-14.5766
▁Nibbles	-14.5766
▁Phoebe	-14.5766
▁Radio	-14.5766
▁Tigger	-14.5766
▁Wilbur	-14.5766
▁abandoned	-14.5766
▁album	-14.5766
▁atmosphere	-14.5766
▁attendant	-14.5766
▁chant	-14.5766
▁choke	-14.5766
▁cinema	-14.5766
▁cinnamon	-14.5766
▁diaries	-14.5766
▁enchanted	-14.5766
▁fading	-14.5766
▁godmother	-14.5766
▁grinning	-14.5766
▁kiwi	-14.5766
▁loneliness	-14.5766
▁parcel	-14.5766
▁pavement	-14.5766
▁ponytail	-14.5766
▁position	-14.5766
▁rink	-14.5766
▁shiniest	-14.5766
▁sunburn	-14.5766
▁supermarket	-14.5766
▁tastiest	-14.5766
▁tightrope	-14.5766
▁victorious	-14.5766
▁swift	-14.5766
▁triumph	-14.5766
▁reddest	-14.5766
Banana	-14.5766
▁grade	-14.5767
▁unlike	-14.5767
▁playmate	-14.5767
▁Boris	-14.5767
▁Fast	-14.5787
pear	-14.5843
▁flipp	-14.5887
▁Raj	-14.597
ught	-14.632
serted	-14.6346
Pizza	-14.6353
power	-14.6353
grandma	-14.6353
filled	-14.6353
grow	-14.6353
Race	-14.6353
▁Fuzz	-14.6354
▁invent	-14.6355
Blech	-14.6355
Delicious	-14.6355
Strike	-14.6355
▁Archie	-14.6355
▁Bailey	-14.6355
▁Cassie	-14.6355
▁Cherry	-14.6355
▁Diana	-14.6355
▁Game	-14.6355
▁Gizmo	-14.6355
▁Grape	-14.6355
▁Horse	-14.6355
▁Jodie	-14.6355
▁Jules	-14.6355
▁Leopard	-14.6355
▁Madeline	-14.6355
▁Marco	-14.6355
▁Marty	-14.6355
▁Miranda	-14.6355
▁Pearl	-14.6355
▁Rupert	-14.6355
▁Shawn	-14.6355
▁Shirley	-14.6355
▁Slowpoke	-14.6355
▁Squeezy	-14.6355
▁advan	-14.6355
▁benefit	-14.6355
▁cacti	-14.6355
▁channel	-14.6355
▁chaos	-14.6355
▁cloak	-14.6355
▁croissant	-14.6355
▁destruction	-14.6355
▁dismay	-14.6355
▁dizziness	-14.6355
▁energized	-14.6355
▁envy	-14.6355
▁excellen	-14.6355
▁farewell	-14.6355
▁fishermen	-14.6355
▁gradually	-14.6355
▁hamburger	-14.6355
▁heaviest	-14.6355
▁overnight	-14.6355
▁predator	-14.6355
▁priest	-14.6355
▁resumed	-14.6355
▁shaving	-14.6355
▁similar	-14.6355
▁subject	-14.6355
▁sulk	-14.6355
▁sunbeam	-14.6355
▁unravel	-14.6355
▁voyage	-14.6355
▁wrinkly	-14.6355
▁Burt	-14.6355
▁Driver	-14.6355
▁ballerina	-14.6355
▁tender	-14.6355
▁Tomato	-14.6355
▁adopt	-14.6355
▁funnier	-14.6355
▁settling	-14.6355
▁vain	-14.6355
▁Funny	-14.6355
▁Fireman	-14.6355
▁Nearby	-14.6355
▁Shine	-14.6355
▁Dash	-14.6355
Smell	-14.6364
▁laz	-14.6378
iggy	-14.6748
eared	-14.6831
▁pancake	-14.6914
urprisingly	-14.6959
▁scrap	-14.6966
▁releas	-14.6974
▁replac	-14.6974
▁achiev	-14.6975
▁Kyl	-14.6978
▁kill	-14.6978
▁unfold	-14.6978
▁perch	-14.6978
happy	-14.6978
Right	-14.6978
Turn	-14.6978
Rabbit	-14.6978
Spike	-14.6978
Squirrel	-14.6978
believe	-14.6978
exit	-14.6978
tweet	-14.6978
Fight	-14.6978
▁collapse	-14.6978
▁ruff	-14.698
Disappear	-14.698
Perfect	-14.698
Quiz	-14.698
Sweetheart	-14.698
▁Denise	-14.698
▁Erin	-14.698
▁Fruit	-14.698
▁Jasper	-14.698
▁Junior	-14.698
▁Luxury	-14.698
▁Miguel	-14.698
▁Mika	-14.698
▁Phillip	-14.698
▁Randy	-14.698
▁Saturn	-14.698
▁Shiny	-14.698
▁Skeleton	-14.698
▁Toni	-14.698
▁Wilma	-14.698
▁acrobat	-14.698
▁afloat	-14.698
▁announcement	-14.698
▁balcony	-14.698
▁brim	-14.698
▁captivated	-14.698
▁cities	-14.698
▁contentment	-14.698
▁cowgirl	-14.698
▁droop	-14.698
▁exhibit	-14.698
▁fossil	-14.698
▁guidance	-14.698
▁headphones	-14.698
▁jeans	-14.698
▁liking	-14.698
▁medium	-14.698
▁obliged	-14.698
▁outsmarted	-14.698
▁practising	-14.698
▁privacy	-14.698
▁purchase	-14.698
▁relationship	-14.698
▁revenge	-14.698
▁salsa	-14.698
▁savanna	-14.698
▁trousers	-14.698
▁underestimate	-14.698
▁uneasy	-14.698
▁unscrew	-14.698
▁vacuum	-14.698
▁vitamins	-14.698
▁whining	-14.698
▁wondrous	-14.698
▁Mason	-14.698
▁Misty	-14.698
▁Snail	-14.698
▁loaf	-14.698
▁zig	-14.698
Animal	-14.698
▁Peppa	-14.698
▁"3"	-14.698
▁Joanne	-14.698
Crash	-14.698
▁Fanny	-14.698
▁Lara	-14.698
▁Round	-14.698
▁stump	-14.698
rizzly	-14.6981
lapping	-14.6984
Shut	-14.699
ddled	-14.7368
Robot	-14.7539
▁sens	-14.7562
▁germ	-14.758
terflies	-14.7614
▁Bloo	-14.7641
▁squirm	-14.7644
3	-14.7645
just	-14.7645
Stand	-14.7645
Ruff	-14.7645
Coco	-14.7645
Zero	-14.7645
magic	-14.7645
help	-14.7645
Life	-14.7645
Sunny	-14.7645
BOOM	-14.7646
ceeded	-14.7646
▁911	-14.7646
▁Dale	-14.7646
▁Dawn	-14.7646
▁Dennis	-14.7646
▁English	-14.7646
▁Freya	-14.7646
▁Friday	-14.7646
▁Frisky	-14.7646
▁Kaitlyn	-14.7646
▁Lewi	-14.7646
▁Lydia	-14.7646
▁Muscle	-14.7646
▁Nemo	-14.7646
▁Plus	-14.7646
▁Stephanie	-14.7646
▁Wanda	-14.7646
▁carousel	-14.7646
▁ceremony	-14.7646
▁clink	-14.7646
▁confusing	-14.7646
▁cork	-14.7646
▁dandelion	-14.7646
▁dashboard	-14.7646
▁dying	-14.7646
▁ecstatic	-14.7646
▁entertain	-14.7646
▁grasp	-14.7646
▁lumberjack	-14.7646
▁nuggets	-14.7646
▁ogre	-14.7646
▁paramedic	-14.7646
▁promising	-14.7646
▁propeller	-14.7646
▁quiver	-14.7646
▁refusing	-14.7646
▁ridden	-14.7646
▁sprung	-14.7646
▁strand	-14.7646
▁studies	-14.7646
▁stunned	-14.7646
▁suspicious	-14.7646
▁swell	-14.7646
▁teddies	-14.7646
▁unstuck	-14.7646
▁untwist	-14.7646
▁vast	-14.7646
▁Scale	-14.7646
▁contentedly	-14.7646
▁tackle	-14.7646
Exit	-14.7646
▁double	-14.7646
▁lens	-14.7646
nives	-14.7646
▁desire	-14.7646
▁superpower	-14.7646
▁Rubby	-14.7646
▁Know	-14.7646
▁Golf	-14.7646
▁imp	-14.7647
Easy	-14.7647
Vanish	-14.7662
Talk	-14.7739
▁sibling	-14.8295
Girls	-14.8339
▁Van	-14.8343
sized	-14.8348
locks	-14.8354
▁snarl	-14.8359
minded	-14.8359
Number	-14.8359
piece	-14.8359
Clean	-14.8359
Spicy	-14.8359
whoosh	-14.8359
Before	-14.8359
Danny	-14.8359
Ellie	-14.8359
Froggy	-14.8359
Mandy	-14.8359
Pippin	-14.8359
because	-14.8359
behaved	-14.8359
dangerous	-14.8359
fashion	-14.8359
ignorant	-14.8359
university	-14.8359
▁Dust	-14.836
▁Chalk	-14.8361
▁Fear	-14.8361
▁Home	-14.8361
Bravo	-14.8361
Release	-14.8361
arshmallow	-14.8361
▁Biscuit	-14.8361
▁China	-14.8361
▁DVD	-14.8361
▁Dependable	-14.8361
▁Diane	-14.8361
▁Fierce	-14.8361
▁Flash	-14.8361
▁Forky	-14.8361
▁Freckle	-14.8361
▁Grey	-14.8361
▁Lacey	-14.8361
▁Maisie	-14.8361
▁Microphone	-14.8361
▁Naomi	-14.8361
▁Passport	-14.8361
▁Pistol	-14.8361
▁Rush	-14.8361
▁Scott	-14.8361
▁Statue	-14.8361
▁Switch	-14.8361
▁Sylvi	-14.8361
“	-14.9962
7	-14.9963
4	-15.0871
–	-15.1871
)	-15.2983
(	-15.4233
&	-15.9329
‘	-16.1827
_	-16.1829
[	-16.5162
+	-17.0162
=	-17.0162
ā	-17.0162
]	-17.0162
ó	-18.0156
*	-18.0157
́	-18.0158
\	-18.0159
$	-18.016
q	-18.0161
­	-18.0162
#	-18.0162
%	-18.0162
<	-18.0162
¢	-18.0162
